{"<|endoftext|>":0,"!":1,"\"":2,"#":3,"$":4,"%":5,"&":6,"'":7,"(":8,")":9,"*":10,"+":11,",":12,"-":13,".":14,"/":15,"0":16,"1":17,"2":18,"3":19,"4":20,"5":21,"6":22,"7":23,"8":24,"9":25,":":26,";":27,"<":28,"=":29,">":30,"?":31,"@":32,"A":33,"B":34,"C":35,"D":36,"E":37,"F":38,"G":39,"H":40,"I":41,"J":42,"K":43,"L":44,"M":45,"N":46,"O":47,"P":48,"Q":49,"R":50,"S":51,"T":52,"U":53,"V":54,"W":55,"X":56,"Y":57,"Z":58,"[":59,"\\":60,"]":61,"^":62,"_":63,"`":64,"a":65,"b":66,"c":67,"d":68,"e":69,"f":70,"g":71,"h":72,"i":73,"j":74,"k":75,"l":76,"m":77,"n":78,"o":79,"p":80,"q":81,"r":82,"s":83,"t":84,"u":85,"v":86,"w":87,"x":88,"y":89,"z":90,"{":91,"|":92,"}":93,"~":94,"¡":95,"¢":96,"£":97,"¤":98,"¥":99,"¦":100,"§":101,"¨":102,"©":103,"ª":104,"«":105,"¬":106,"®":107,"¯":108,"°":109,"±":110,"²":111,"³":112,"´":113,"µ":114,"¶":115,"·":116,"¸":117,"¹":118,"º":119,"»":120,"¼":121,"½":122,"¾":123,"¿":124,"À":125,"Á":126,"Â":127,"Ã":128,"Ä":129,"Å":130,"Æ":131,"Ç":132,"È":133,"É":134,"Ê":135,"Ë":136,"Ì":137,"Í":138,"Î":139,"Ï":140,"Ð":141,"Ñ":142,"Ò":143,"Ó":144,"Ô":145,"Õ":146,"Ö":147,"×":148,"Ø":149,"Ù":150,"Ú":151,"Û":152,"Ü":153,"Ý":154,"Þ":155,"ß":156,"à":157,"á":158,"â":159,"ã":160,"ä":161,"å":162,"æ":163,"ç":164,"è":165,"é":166,"ê":167,"ë":168,"ì":169,"í":170,"î":171,"ï":172,"ð":173,"ñ":174,"ò":175,"ó":176,"ô":177,"õ":178,"ö":179,"÷":180,"ø":181,"ù":182,"ú":183,"û":184,"ü":185,"ý":186,"þ":187,"ÿ":188,"Ā":189,"ā":190,"Ă":191,"ă":192,"Ą":193,"ą":194,"Ć":195,"ć":196,"Ĉ":197,"ĉ":198,"Ċ":199,"ċ":200,"Č":201,"č":202,"Ď":203,"ď":204,"Đ":205,"đ":206,"Ē":207,"ē":208,"Ĕ":209,"ĕ":210,"Ė":211,"ė":212,"Ę":213,"ę":214,"Ě":215,"ě":216,"Ĝ":217,"ĝ":218,"Ğ":219,"ğ":220,"Ġ":221,"ġ":222,"Ģ":223,"ģ":224,"Ĥ":225,"ĥ":226,"Ħ":227,"ħ":228,"Ĩ":229,"ĩ":230,"Ī":231,"ī":232,"Ĭ":233,"ĭ":234,"Į":235,"į":236,"İ":237,"ı":238,"Ĳ":239,"ĳ":240,"Ĵ":241,"ĵ":242,"Ķ":243,"ķ":244,"ĸ":245,"Ĺ":246,"ĺ":247,"Ļ":248,"ļ":249,"Ľ":250,"ľ":251,"Ŀ":252,"ŀ":253,"Ł":254,"ł":255,"Ń":256,"Ġe":257,"ni":258,"Ġs":259,"ht":260,"Ġd":261,"no":262,"it":263,"re":264,"na":265,"er":266,"la":267,"ne":268,"Ġt":269,"Ġ,":270,"ro":271,"Ġeht":272,"Ġde":273,"Ġy":274,"Ġ.":275,"fo":276,"noit":277,"Ġfo":278,"ta":279,"ra":280,"Ġni":281,"or":282,"Ġdna":283,"gni":284,"Ġla":285,"ci":286,"ts":287,"Ġo":288,"Ġgni":289,"is":290,"le":291,"ĠĠ":292,"ce":293,"ca":294,"Ġse":295,"Ġa":296,"id":297,"Ġnoit":298,"Ġot":299,"sa":300,"se":301,"ru":302,"Ġro":303,"lu":304,"Ġre":305,"ti":306,"oc":307,"Ġsa":308,"ser":309,"Ġ)":310,"pm":311,"Ġht":312,"Ġta":313,"iw":314,"tne":315,"xe":316,"noc":317,"Ġnoita":318,"lo":319,"te":320,"âĢ":321,"vit":322,"nu":323,"Ġsi":324,"Ġno":325,"hc":326,"Ġm":327,"su":328,"el":329,"Ġtne":330,"ir":331,"Ġ.)":332,"Ġhtiw":333,"wo":334,"Ġyl":335,"us":336,"ar":337,"orp":338,"hT":339,"om":340,"cit":341,"Ġere":342,"iv":343,"Ġne":344,"li":345,"ed":346,"Ġrof":347,"op":348,"am":349,"ff":350,"Ġtaht":351,"ĊĊ":352,"Ġna":353,"Ġdeta":354,"en":355,"ba":356,"Ġh":357,"Ġ(":358,"em":359,"ret":360,"Ġerew":361,"Ġl":362,"Ġ;":363,"gi":364,"rep":365,"Ġsaw":366,"cne":367,"si":368,"co":369,"es":370,"Ġn":371,"ma":372,"rev":373,"Ġst":374,"hw":375,"Ġel":376,"cu":377,"ap":378,"ng":379,"hp":380,"noita":381,"roc":382,"serp":383,"Ġyb":384,"Ġevit":385,"ĠehT":386,"pa":387,"Ġci":388,"uo":389,"Ġyti":390,"mi":391,"fi":392,"ri":393,"ga":394,"ul":395,"Ġdet":396,"##":397,"hs":398,"Ġeta":399,"da":400,"et":401,"rt":402,"ps":403,"uq":404,"Ġp":405,"rof":406,"Ġera":407,"ot":408,"cni":409,"âĢī":410,"pmoc":411,"Ġev":412,"ah":413,"ĠĠĊ":414,"neg":415,"on":416,"Ġ,)":417,"me":418,"mit":419,"Ġnee":420,"erp":421,"lp":422,"Ġmor":423,"tnoc":424,"rap":425,"ys":426,"Ġmorf":427,"Ġk":428,"ĠA":429,"Ġte":430,"Ġra":431,"ĊĠĠĊ":432,"dni":433,"ngis":434,"Âł":435,"wte":436,"uts":437,"Ġnois":438,"cna":439,"Ġstne":440,"Ġlaci":441,"Ġeb":442,"Ġcit":443,"rts":444,"di":445,"Ġ1":446,"ruen":447,"ler":448,"Ġ0":449,"so":450,"mu":451,"mo":452,"de":453,"cer":454,"lec":455,"lev":456,"ffid":457,"Ġ,.":458,"Ġder":459,"zi":460,"Ġreht":461,"hgi":462,"pi":463,"Ġecne":464,"go":465,"ger":466,"uor":467,"ceff":468,"wol":469,"pe":470,"Ġsno":471,"vitca":472,"saer":473,"Ġtna":474,"pser":475,"itne":476,"eht":477,"Ġeru":478,"Ġyro":479,"reffid":480,"ub":481,"dom":482,"Ġeni":483,"gna":484,"po":485,"Ġton":486,"il":487,"Ġ##":488,"ob":489,"itap":490,"mrof":491,"bus":492,"Ġret":493,"cifi":494,"cnu":495,"ssa":496,"retni":497,"Ġew":498,"bo":499,"Ġ2":500,"ĠD":501,"wohs":502,"pma":503,"wteb":504,"Ġylla":505,"cim":506,"Ġsiht":507,"sse":508,"Ġneewteb":509,"pmi":510,"yla":511,"Ġgnid":512,"00":513,"ĠnI":514,"red":515,"arb":516,"sno":517,"ĠS":518,"cs":519,"Ġ=":520,"yl":521,"cud":522,"Ġese":523,"sla":524,"Ġdev":525,"ceffe":526,"Ġhci":527,"lc":528,"Ġsis":529,"Ġsnoit":530,"cej":531,"ylana":532,"ĠP":533,"Ġti":534,"eb":535,"at":536,"Ġhcihw":537,"Ġ:":538,"div":539,"llec":540,"Ġsu":541,"rae":542,"ĠC":543,"lav":544,"Ġtnem":545,"dne":546,"ico":547,"cifingis":548,"golo":549,"of":550,"cnuf":551,"uorg":552,"Ġsnoita":553,"tu":554,"ĠI":555,"oru":556,"Ġecna":557,"Ġhc":558,"if":559,"tad":560,"ya":561,"rom":562,"Ġru":563,"ira":564,"caf":565,"res":566,"Ġhca":567,"Ġdeni":568,"yt":569,"eru":570,"tna":571,"ere":572,"ih":573,"duts":574,"nart":575,"Ġgnisu":576,"âĢĵ":577,"Ġevah":578,"Ġsuo":579,"rop":580,"serpxe":581,"saercni":582,"gno":583,"Ġniarb":584,"Ġts":585,"Ġyle":586,"Ġlla":587,"Ġtse":588,"tnem":589,"Ġed":590,"Ġrot":591,"ortnoc":592,"ner":593,"Ġdesu":594,"ceps":595,"lumit":596,"Ġ5":597,"gam":598,"moc":599,"luser":600,"Ġesa":601,"oruen":602,"Ġlanoit":603,"tse":604,"dna":605,"Ġosla":606,"lumits":607,"gra":608,"ledom":609,"do":610,"nim":611,"Ġega":612,"Ġsla":613,"Ġ3":614,"wt":615,"fni":616,"nom":617,"Ġsre":618,"rud":619,"level":620,"Ġelba":621,"ĊĊĊ":622,"ĠT":623,"pyt":624,"ruc":625,"Ġeseht":626,"ert":627,"ol":628,"itna":629,"Ġlacit":630,"Ġevita":631,"Ġdlu":632,"Ġretf":633,"iduts":634,"corp":635,"Ġralu":636,"Ġ[":637,"nor":638,"Ġdnu":639,"Ġ%":640,"Ġsse":641,"Ġsro":642,"tam":643,"Ġyra":644,"Ġstneitap":645,"irav":646,"liba":647,"lov":648,"net":649,"sab":650,"col":651,"ĠR":652,"nys":653,"citrap":654,"irt":655,"Ġhcae":656,"Ġesu":657,"ulav":658,"ted":659,"icossa":660,"ĠeW":661,"ib":662,"sid":663,"yh":664,"Ġyam":665,"Ġgnit":666,"Ġeno":667,"ced":668,"ua":669,"Ġri":670,"iger":671,"Ġgnita":672,"art":673,"Ġya":674,"ĠM":675,"nI":676,"snopser":677,"Ġ4":678,"Ġ###":679,"Ġneeb":680,"Ġnac":681,"Ġsllec":682,"Ġes":683,"ut":684,"gnahc":685,"mrofrep":686,"Ġatad":687,"Ġgnirud":688,"Ġsm":689,"ĠF":690,"ped":691,"Ġseta":692,"Ġsah":693,"cele":694,"Ġsnoruen":695,"htap":696,"Ġretfa":697,"hgih":698,"eh":699,"hce":700,"Ġyduts":701,"ve":702,"ulcni":703,"sor":704,"repxe":705,"sit":706,"gg":707,"reve":708,"reneg":709,"nam":710,"ĠsihT":711,"Ġtub":712,"Ġhtob":713,"Ġsti":714,"htiw":715,"rif":716,"ort":717,"Ġerom":718,"hg":719,"uqer":720,"Ġred":721,"Ġtuo":722,"reht":723,"Ġek":724,"gami":725,"cart":726,"Ġded":727,"lof":728,"ivah":729,"giF":730,"Ġseiduts":731,"sop":732,"Ġnaht":733,"Ġxe":734,"cen":735,"lA":736,"tset":737,"pu":738,"puorg":739,"saem":740,"Ġrehto":741,"tsid":742,"Ġdera":743,"Ġruo":744,"Ġytivitca":745,"nil":746,"01":747,"nes":748,"arg":749,"idem":750,"resbo":751,"etorp":752,"Ġlat":753,"ngoc":754,"Ġrieht":755,"ces":756,"Ġemit":757,"ef":758,"Ġdo":759,"Ġseru":760,"tnec":761,"Ġlano":762,"ivaheb":763,"Ġowt":764,"Ġmu":765,"Ġhg":766,"sat":767,"Ġdetaler":768,"ep":769,"irp":770,"Ġtnereffid":771,"idnoc":772,"cif":773,"tis":774,"ĠG":775,"ev":776,"Ġtnacifingis":777,"tneserp":778,"ggus":779,"reta":780,"Ġnoisserpxe":781,"yc":782,"snart":783,"âĢĻ":784,"yti":785,"âĢĲ":786,"cidni":787,"curts":788,"rb":789,"picitrap":790,"lla":791,"Ġ.]":792,"ingoc":793,"lum":794,"Ġlacigolo":795,"Ġstna":796,"ulc":797,"Ġi":798,"Ġw":799,"Ġthgi":800,"ats":801,"isnoc":802,"Ġecim":803,"Ġstluser":804,"mun":805,"row":806,"Ġreb":807,"wollof":808,"ets":809,"Ġdezi":810,"ssecorp":811,"revo":812,"cuder":813,"Ġsecne":814,"Ġsisylana":815,"Ġytiliba":816,"roper":817,"Ġgnini":818,"Ġdnuof":819,"Ġ6":820,"Ġlaro":821,"isop":822,"cudni":823,"leved":824,"Ġdetaicossa":825,"revewo":826,"Ġllec":827,"cid":828,"irc":829,"ubir":830,"pus":831,"iti":832,"divid":833,"lle":834,"tsop":835,"ĠN":836,"era":837,"mirepxe":838,"mem":839,"st":840,"lpma":841,"ew":842,"cil":843,"ron":844,"Ġeli":845,"Ġderapmoc":846,"Ġsei":847,"taert":848,"Ġhcus":849,"Ġlortnoc":850,"Ġgnik":851,"Ġsk":852,"eta":853,"Ġnoitalu":854,"cejbus":855,"rowte":856,"Ġlai":857,"Ġdi":858,"Ġeer":859,"ĠB":860,"cennoc":861,"Ġlani":862,"tro":863,"Ġpuorg":864,"Ġdra":865,"non":866,"dneped":867,"Ġtceffe":868,"02":869,"top":870,"poleved":871,"Ġon":872,"Ġstceffe":873,"Ġsni":874,"rowten":875,"xo":876,"lac":877,"nois":878,"yd":879,"Ġgno":880,"num":881,"esid":882,"lim":883,"Ġeso":884,"nk":885,"panys":886,"orppa":887,"Ġycne":888,"lam":889,"sed":890,"Ġtneme":891,"rednu":892,"Ġrotom":893,"ihni":894,"sev":895,"udivid":896,"pmet":897,"ac":898,"tnacifingis":899,"Ġsgni":900,"âĢīĠ":901,"Ġdesab":902,"Ġotni":903,"htem":904,"Ġ8":905,"Ġdesaercni":906,"Ġlaitne":907,"eneg":908,"Ġdes":909,"Ġelb":910,"ĠÎ":911,"nna":912,"lortnoc":913,"suo":914,"ĠE":915,"orcim":916,"Ġdluoc":917,"itnedi":918,"tuo":919,"uqes":920,"Ġylno":921,"udividni":922,"orts":923,"Â±":924,"to":925,"Ġdewohs":926,"Ġledom":927,"up":928,"ie":929,"irep":930,"NR":931,"luc":932,"Ġesnopser":933,"tem":934,"Ġnehw":935,"nahce":936,"Ġrebmun":937,"Ġslevel":938,"Ġemo":939,"iverp":940,"rus":941,"gre":942,"nopser":943,"cerid":944,"Ġdevresbo":945,"ficeps":946,"nilc":947,"troc":948,"pecer":949,"Ġrev":950,"Ġeu":951,"ref":952,"loc":953,"ĠroF":954,"AC":955,"stne":956,"rael":957,"yhp":958,"va":959,"Ġyltnacifingis":960,"nahcem":961,"revewoH":962,"Ġlle":963,"Ġtsa":964,"usiv":965,"kra":966,"RM":967,"Ġevitingoc":968,"âĢĿ":969,"eni":970,"Ġsegnahc":971,"Ġda":972,"Ġg":973,"âĢľ":974,"tib":975,"Ġle":976,"sni":977,"cel":978,"Ġ7":979,"xa":980,"mina":981,"Ġcificeps":982,"git":983,"uqerf":984,"lia":985,"Ġytivit":986,"Ġdluo":987,"lpmoc":988,"Ġevis":989,"Ġnoitavitca":990,"nerruc":991,"Ġnoitcnuf":992,"cep":993,"Ġnwohs":994,"ek":995,"Ġnihtiw":996,"Ġ01":997,"Ġthg":998,"grat":999,"od":1000,"Ġwol":1001,"Ġtneserp":1002,"sro":1003,"ur":1004,"sis":1005,"Ġsya":1006,"ilg":1007,"Ġssor":1008,"tcaf":1009,"muh":1010,"oh":1011,"Ġlanoitcnuf":1012,"Ġdemrofrep":1013,"cop":1014,"Ġwo":1015,"ĠesehT":1016,"gral":1017,"saerced":1018,"Ġdah":1019,"Ġ<":1020,"Ġema":1021,"snoit":1022,"Ġnoitca":1023,"Ġnoitamrof":1024,"ire":1025,"coppi":1026,"pmacoppi":1027,"Ġnoitazi":1028,"lerroc":1029,"dnif":1030,"Ġsd":1031,"ĠoT":1032,"Ġf":1033,"os":1034,"itlum":1035,"Ġtes":1036,"rapmoc":1037,"pec":1038,"eiv":1039,"Ġsecnereffid":1040,"luf":1041,"sinahcem":1042,"Ġlacitroc":1043,"ciderp":1044,"uti":1045,"noC":1046,"tap":1047,"tar":1048,"Ġtset":1049,"tseggus":1050,"pmacoppih":1051,"ĠH":1052,"fel":1053,"lovni":1054,"idda":1055,"ly":1056,"rocer":1057,"Ġtnemtaert":1058,"Ġepyt":1059,"Ġses":1060,"nret":1061,"Ġdek":1062,"Ġdeif":1063,"limis":1064,"uorht":1065,"lpxe":1066,"Ġtnedneped":1067,"zis":1068,"Ġtsrif":1069,"Ġderi":1070,"ĠL":1071,"ylla":1072,"Ġlacinilc":1073,"Ġx":1074,"âĪ":1075,"loh":1076,"divorp":1077,"Ġet":1078,"Ġllew":1079,"uc":1080,"ĠO":1081,"Ġtsom":1082,"tcurts":1083,"Ġdecudni":1084,"Ġssorca":1085,"pop":1086,"mal":1087,"ren":1088,"uoht":1089,"gitsev":1090,"Ġlareta":1091,"ĠâĢĿ":1092,"Ġytis":1093,"Ġ9":1094,"ceffa":1095,"cudorp":1096,"hsi":1097,"lb":1098,"Ġdetroper":1099,"erg":1100,"Ġgnin":1101,"ciff":1102,"nummi":1103,"hC":1104,"hca":1105,"PA":1106,"gitsevni":1107,"rp":1108,"retca":1109,"Î¼":1110,"Ġstnapicitrap":1111,"ceted":1112,"ega":1113,"Ġrehte":1114,"fed":1115,"Ġnietorp":1116,"Ġnaem":1117,"Ġrehgih":1118,"Ġgnidulcni":1119,"elcu":1120,"lib":1121,"Ġemas":1122,"21":1123,"SP":1124,"mil":1125,"Ġmets":1126,"Ġeti":1127,"niop":1128,"Ġelor":1129,"Ġsnoiger":1130,"Ġnev":1131,"opyh":1132,"led":1133,"Ġlaruen":1134,"nomed":1135,"Ġyrota":1136,"rahc":1137,"luger":1138,"celes":1139,"Ġeerht":1140,"rtsnomed":1141,"Ġll":1142,"tsi":1143,"ecne":1144,"Ġereht":1145,"Ġerof":1146,"vom":1147,"ĠsA":1148,"ĊĠ":1149,"Ġlar":1150,"Ġylevit":1151,"tim":1152,"Ġyeht":1153,"esa":1154,"Ġlanoruen":1155,"Ġrehtru":1156,"Ġhgi":1157,"Ġlevel":1158,"rosid":1159,"sir":1160,"ysp":1161,"Ġdid":1162,"reva":1163,"norf":1164,"erec":1165,"los":1166,"cepser":1167,"tropmi":1168,"ircsed":1169,"Ġelihw":1170,"lba":1171,"yduts":1172,"Ġcitpanys":1173,"dno":1174,"Ġrep":1175,"eler":1176,"im":1177,"icos":1178,"Ġnwo":1179,"tema":1180,"gnis":1181,"Ġesaercni":1182,"tsisnoc":1183,"Ġlausiv":1184,"DA":1185,"yle":1186,"sum":1187,"SA":1188,"ĠV":1189,"sim":1190,"gne":1191,"âĪĴ":1192,"malfni":1193,"lli":1194,"ses":1195,"dive":1196,"reted":1197,"oC":1198,"Ġb":1199,"Ġhgih":1200,"Ġlaitnetop":1201,"Ġneht":1202,"Ġreta":1203,"Ġlam":1204,"Ġxetroc":1205,"SC":1206,"mirp":1207,"retcarahc":1208,"tir":1209,"gnol":1210,"Ġtfel":1211,"nA":1212,"snoita":1213,"Ġrevo":1214,"Ġelbis":1215,"tum":1216,"Ġyromem":1217,"reves":1218,"luda":1219,"sm":1220,"Ġtca":1221,"snes":1222,"Ġgniwollof":1223,"Ġdei":1224,"fer":1225,"Ġthgir":1226,"50":1227,"ortcele":1228,"cir":1229,"Ġkca":1230,"ric":1231,"Ġyaw":1232,"Ġhguorht":1233,"Ġylsuo":1234,"netta":1235,"otpm":1236,"Ġlaru":1237,"apmi":1238,"ubirtnoc":1239,"Ġ-":1240,"Ġhguoht":1241,"lppa":1242,"Ġksat":1243,"100":1244,"hcysp":1245,"Ġnamuh":1246,"ÃĹ":1247,"cerroc":1248,"ag":1249,"AG":1250,"mets":1251,"nuoc":1252,"Ġsnois":1253,"raeser":1254,"Ġrehtruf":1255,"gnar":1256,"salp":1257,"rac":1258,"ero":1259,"iro":1260,"ĠÂ±":1261,"Ġygolo":1262,"Ġyna":1263,"ircs":1264,"Ġsed":1265,"ssessa":1266,"cxe":1267,"Ġesoht":1268,"Ġralimis":1269,"ocs":1270,"Ġnoitalumits":1271,"maxe":1272,"bal":1273,"Ġniam":1274,"Ġrehtehw":1275,"Ġesaesid":1276,"Ġgnis":1277,"hW":1278,"FG":1279,"ms":1280,"Ġwohs":1281,"Ġkrowten":1282,"laeh":1283,"dnu":1284,"rg":1285,"Ġsesnopser":1286,"borp":1287,"ever":1288,"nev":1289,"05":1290,"Ġeruta":1291,"CP":1292,"Ġyltne":1293,"orpmi":1294,"ig":1295,"eN":1296,"Ġenil":1297,"Ġevitisop":1298,"ceb":1299,"Ġstnem":1300,"otpmys":1301,"Ġnoitamrofni":1302,"Ġgniv":1303,"ĠIRM":1304,"Ġelp":1305,"Ġelpma":1306,"elcun":1307,"Ġsgnidnif":1308,"Ġylt":1309,"Ġemos":1310,"cca":1311,"in":1312,"mm":1313,"Ġlaropmet":1314,"Ġser":1315,"tibihni":1316,"ĠerugiF":1317,"man":1318,"Ġspuorg":1319,"Ġdecuder":1320,"Ġycneuqerf":1321,"Ġlatne":1322,"Ġtnerruc":1323,"yal":1324,"Ġcir":1325,"mix":1326,"org":1327,"xE":1328,"tnemel":1329,"ned":1330,"eR":1331,"serts":1332,"Ġyd":1333,"#&":1334,"Ġseulav":1335,"Ġees":1336,"iciff":1337,"sre":1338,"tneserper":1339,"tei":1340,"isyhp":1341,"ome":1342,"lop":1343,"CS":1344,"Ġrewol":1345,"eno":1346,"pareht":1347,"jni":1348,"Ġgnigami":1349,"NA":1350,"ulave":1351,"Ġmetsys":1352,"dim":1353,"Ġdeb":1354,"Ġyrev":1355,"ubirtsid":1356,"roppus":1357,"temarap":1358,"mehc":1359,"serped":1360,"niam":1361,"calp":1362,"its":1363,"Ġerehw":1364,"03":1365,"ulg":1366,"Ġeud":1367,"ND":1368,"Ġecnamrofrep":1369,"txe":1370,"Ġmrof":1371,"raey":1372,"atbo":1373,"51":1374,"norhc":1375,"bu":1376,"nga":1377,"ĠtI":1378,"metsys":1379,"ena":1380,"Ġecnedive":1381,"cejni":1382,"Ġdluow":1383,"ludom":1384,"Ġlatot":1385,"ĠllA":1386,"sitats":1387,"isnes":1388,"kca":1389,"Ġdeti":1390,"itaps":1391,"Ġpe":1392,"bmoc":1393,"Ġlatnem":1394,"ecna":1395,"Ġsuoiverp":1396,"ym":1397,"Ġdez":1398,"Ġtnatropmi":1399,"mmoc":1400,"Ġsesa":1401,"Ġeneg":1402,"kram":1403,"Ġset":1404,"Ġgnissecorp":1405,"Ġ]":1406,"Ġytivitcennoc":1407,"redisnoc":1408,"lacs":1409,"ilgorcim":1410,"ĠDA":1411,"Ġlatnorf":1412,"mreted":1413,"ĠANR":1414,"Â°":1415,"sllec":1416,"pac":1417,"eM":1418,"Ġlaroivaheb":1419,"Ġsna":1420,"Ġlo":1421,"tsa":1422,"leb":1423,"nnahc":1424,"ecim":1425,"Ġlamron":1426,"ussit":1427,"Ġetu":1428,"seR":1429,"Ġyllaci":1430,"rre":1431,"sol":1432,"TA":1433,"noitaler":1434,"olb":1435,"Ġecnereffid":1436,"Ġelpitlum":1437,"dnats":1438,"11":1439,"lpmas":1440,"zH":1441,"nehp":1442,"redrosid":1443,"Ġderu":1444,"fil":1445,"tnev":1446,"cudnoc":1447,"Ġylrae":1448,"ylevit":1449,"CA":1450,"EE":1451,"mitse":1452,"geta":1453,"colb":1454,"Ġstcejbus":1455,"SM":1456,"Ġetar":1457,"sirapmoc":1458,"tsulc":1459,"Ġesuom":1460,"PM":1461,"Ġec":1462,"langis":1463,"Ġcitam":1464,"hsnoitaler":1465,"ka":1466,"cA":1467,"issa":1468,"Ġsrot":1469,"Ġssel":1470,"Ġsledom":1471,"VO":1472,"dohtem":1473,"atnoc":1474,"erof":1475,"ulf":1476,"Ġlaudividni":1477,"cof":1478,"nopmoc":1479,"Ġai":1480,"retla":1481,"ksat":1482,"Ġgninrael":1483,"Ġydob":1484,"lihc":1485,"Ġnoitacif":1486,"snoruen":1487,"Ġtseggus":1488,"enil":1489,"DM":1490,"OR":1491,"Ġthgim":1492,"leif":1493,"teb":1494,"ngaid":1495,"Ġytila":1496,"ic":1497,"cifed":1498,"Ġsle":1499,"mulov":1500,"noitcnuf":1501,"Ġdetaert":1502,"gol":1503,"Ġerofeb":1504,"Ġlliw":1505,"Ġtuohtiw":1506,"lamron":1507,"Ġdeifitnedi":1508,"lom":1509,"hne":1510,"Ġekil":1511,"Ġesua":1512,"els":1513,"Ġseiti":1514,"les":1515,"Ġksir":1516,"ĠÎ²":1517,"tid":1518,"ore":1519,"Ġdebircsed":1520,"ĠCF":1521,"Ġevitca":1522,"AS":1523,"Ġrehtie":1524,"Ġtegrat":1525,"laever":1526,"TS":1527,"ticxe":1528,"netni":1529,"Ġnim":1530,"52":1531,"meh":1532,"utilpma":1533,"htlaeh":1534,"det":1535,"Ġyleta":1536,"Ġseit":1537,"eli":1538,"Ġrotpecer":1539,"ord":1540,"narb":1541,"kil":1542,"roh":1543,"Ġsepyt":1544,"Ġhcraeser":1545,"nar":1546,"41":1547,"Ġscit":1548,"niarb":1549,"Ġlaicos":1550,"emit":1551,"ulfni":1552,"og":1553,"irts":1554,"eper":1555,"Ġsulumits":1556,"itnauq":1557,"gen":1558,"ĠruO":1559,"Ġdere":1560,"eiver":1561,"ppa":1562,"eew":1563,"Ġseneg":1564,"rujni":1565,"ter":1566,"Ġesi":1567,"Ġcigre":1568,"Ġegnahc":1569,"Ġstar":1570,"Ġelgnis":1571,"itini":1572,"Ġdedulcni":1573,"Ġnoitalerroc":1574,"lohser":1575,"aw":1576,"ĠĠĠ":1577,"ortsa":1578,"yma":1579,"sv":1580,"hpso":1581,"NC":1582,"ad":1583,"Ġyllacit":1584,"10":1585,"tsih":1586,"RE":1587,"stneitap":1588,"luclac":1589,"Ġylsuoiverp":1590,"Ġlanoita":1591,"Ġste":1592,"serg":1593,"LI":1594,"Ġfi":1595,"Ġdetneserp":1596,"sne":1597,"Î±":1598,"moctuo":1599,"Ġ####":1600,"Ġredro":1601,"Ġwoh":1602,"lohserht":1603,"Ġeci":1604,"lg":1605,"uj":1606,"Ġtnempoleved":1607,"Ġdelaever":1608,"Ġrednu":1609,"Ġeroc":1610,"taef":1611,"Ġnoitani":1612,"Ġlaitaps":1613,"Ġdevlovni":1614,"dlihc":1615,"Ġnoitu":1616,"eps":1617,"rehp":1618,"repyh":1619,"nrettap":1620,"Î²":1621,"Ġsmsinahcem":1622,"cejbo":1623,"Ġelpmas":1624,"gro":1625,"Ġetats":1626,"citra":1627,"hpsohp":1628,"rucca":1629,"DC":1630,"Ġtup":1631,"Ġslamina":1632,"Ġderusaem":1633,"ylevitcepser":1634,"Ġdesserpxe":1635,"otyc":1636,"Ġlangis":1637,"ĠâĢĵ":1638,"lame":1639,"rehtru":1640,"Ġezis":1641,"Ġlareves":1642,"nem":1643,"noitidnoc":1644,"lesab":1645,"syd":1646,"deta":1647,"csa":1648,"Ġpu":1649,"31":1650,"Ġdesaerced":1651,"tnecnoc":1652,"laht":1653,"celom":1654,"Ġdesop":1655,"viv":1656,"Ġslairt":1657,"Ġeulav":1658,"Ġdeniatbo":1659,"amer":1660,"cartxe":1661,"Ġsesylana":1662,"ug":1663,"Ġ+":1664,"Ġnwonk":1665,"loba":1666,"dA":1667,"etni":1668,"Ġdraw":1669,"ĠK":1670,"Ġgniy":1671,"fnoc":1672,"Ġilumits":1673,"pircs":1674,"Ġ02":1675,"lamef":1676,"ĠSM":1677,"NS":1678,"tS":1679,"riapmi":1680,"ĠÃĹ":1681,"Ġtuoba":1682,"tsrednu":1683,"urd":1684,"Ġyramirp":1685,"uqca":1686,"Ġegareva":1687,"Ġdno":1688,"81":1689,"wop":1690,"Ġevitagen":1691,"Ġerut":1692,"Ġyrotam":1693,"sisylana":1694,"EM":1695,"otua":1696,"Ġyhtlaeh":1697,"rehtruF":1698,"ips":1699,"Ġ,]":1700,"hprom":1701,"nopserroc":1702,"Ġgniniart":1703,"DP":1704,"Ġaera":1705,"ird":1706,"Ġsci":1707,"Ġdetartsnomed":1708,"uqe":1709,"91":1710,"ibihni":1711,"pme":1712,"Ġnoiger":1713,"rtnoc":1714,"Ġthgil":1715,"eg":1716,"Ġam":1717,"Ġelbissop":1718,"Ġlapmacoppih":1719,"rocca":1720,"Ġu":1721,"issalc":1722,"cam":1723,"CI":1724,"Ġata":1725,"psid":1726,"Ġr":1727,"hparg":1728,"Ġsev":1729,"nwo":1730,"ehtopyh":1731,"Ġaiv":1732,"til":1733,"ĠâĢĻ":1734,"Ġroire":1735,"dnar":1736,"ER":1737,"Ġyrotammalfni":1738,"Ġylekil":1739,"celfer":1740,"Ġevitaler":1741,"ycortsa":1742,"cnahne":1743,"rapes":1744,"Ġetacidni":1745,"orP":1746,"manyd":1747,"Ġsegami":1748,"nik":1749,"itar":1750,"Ġsaera":1751,"BAG":1752,"Ġem":1753,"61":1754,"tnemelp":1755,"ĠDP":1756,"oba":1757,"Ġdehsi":1758,"Ġdluohs":1759,"Ġsrotcaf":1760,"itnetop":1761,"nimda":1762,"Ġciteneg":1763,"caretni":1764,"TC":1765,"Ġnoitcaretni":1766,"Ġlatnemirepxe":1767,"Ġenima":1768,"iciffe":1769,"Ġmo":1770,"001":1771,"hco":1772,"Ġecaf":1773,"Ġroivaheb":1774,"Ġelc":1775,"reneged":1776,"Ġsnoitidnoc":1777,"Ġnet":1778,"tal":1779,"Ġsega":1780,"ene":1781,"cser":1782,"Ġdel":1783,"Ġyad":1784,"nap":1785,"Ġpi":1786,"Ġlacigoloisyhp":1787,"Ġyca":1788,"Ġedivorp":1789,"dra":1790,"ereht":1791,"Ġlanips":1792,"Ġyf":1793,"rab":1794,"Ġka":1795,"erehw":1796,"noitidda":1797,"Ġyrosnes":1798,"oy":1799,"whtap":1800,"ÂłĠ":1801,"ĊĊĊĊ":1802,"sba":1803,"csid":1804,"Ġruof":1805,"ralu":1806,"Ġsel":1807,"lf":1808,"Ġ>":1809,"suhT":1810,"RA":1811,"tser":1812,"hpo":1813,"Ġohw":1814,"telpmoc":1815,"cepxe":1816,"jam":1817,"Ġezi":1818,"Ġesuaceb":1819,"iecer":1820,"ks":1821,"ES":1822,"liava":1823,"nagro":1824,"Ġlaretal":1825,"Ġdradnats":1826,"BT":1827,"orb":1828,"erom":1829,"Ġserusaem":1830,"cejorp":1831,"ohc":1832,"Ġlartnec":1833,"repo":1834,"dnib":1835,"Ġtnetsisnoc":1836,"Ġytilib":1837,"Ġegnar":1838,"Ġlata":1839,"Ġwen":1840,"42":1841,"pircsnart":1842,"Ġma":1843,"Ġmret":1844,"ired":1845,"Ġssol":1846,"atad":1847,"tsis":1848,"Ġegral":1849,"59":1850,"elipe":1851,"Ġesahp":1852,"Ġslaudividni":1853,"Ġserocs":1854,"malaht":1855,"hcet":1856,"irepxe":1857,"ĠGEE":1858,"CM":1859,"lumis":1860,"Ġlaut":1861,"htnom":1862,"Ġtxe":1863,"cificeps":1864,"maf":1865,"**":1866,"nO":1867,"LA":1868,"ye":1869,"Ġluf":1870,"Ġllams":1871,"elpma":1872,"rifnoc":1873,"lif":1874,"htua":1875,"71":1876,"pod":1877,"Ġretaerg":1878,"ny":1879,"Ġpeels":1880,"Ġsyad":1881,"narbmem":1882,"rgetni":1883,"Ġ;)":1884,"celloc":1885,"artnoc":1886,"irb":1887,"lobatem":1888,"Ġdenifed":1889,"Ġnoisu":1890,"itnereffid":1891,"gid":1892,"poc":1893,"daer":1894,"Ġdezylana":1895,"rec":1896,"noriv":1897,"sergorp":1898,"Ġkrow":1899,"Ġgnoma":1900,"Ġsserts":1901,"Ġynam":1902,"Ġ21":1903,"Ġlarb":1904,"Ġdezila":1905,"Ġniap":1906,"Ġgnilangis":1907,"Ġecneserp":1908,"Ġslortnoc":1909,"seuq":1910,"VONA":1911,"Ġdetcudnoc":1912,"tats":1913,"PS":1914,"Ġyt":1915,"Ġedis":1916,"fles":1917,"nima":1918,"tulg":1919,"Ġenilesab":1920,"retnI":1921,"Ġrotcaf":1922,"csero":1923,"ĠataD":1924,"pam":1925,"Ġecni":1926,"II":1927,"Ġxelpmoc":1928,"sei":1929,"norivne":1930,"yg":1931,"veler":1932,"ai":1933,"Ġdetaidem":1934,"04":1935,"Ġdega":1936,"ytivitca":1937,"onehp":1938,"pada":1939,"Ġekorts":1940,"Ġnoitibihni":1941,"ucric":1942,"Ġlau":1943,"yco":1944,"arf":1945,"dael":1946,"Ġneve":1947,"Ġtesno":1948,"Ġnevig":1949,"Ġyr":1950,"nif":1951,"elc":1952,"Ġtneitap":1953,"vresbo":1954,"omorp":1955,"eromrehtruF":1956,"nac":1957,"Ġssa":1958,"ĠerehT":1959,"Ġgnitseggus":1960,"Ġeussit":1961,"ulcxe":1962,"ihxe":1963,"ĊĠĠ":1964,"Ġtnednepedni":1965,"Ġsmotpmys":1966,"hgil":1967,"Ġemulov":1968,"erehT":1969,"nia":1970,"Ġnoitaluger":1971,"idob":1972,"zies":1973,"nego":1974,"Ġ03":1975,"cet":1976,"Ġnoitaicossa":1977,"enat":1978,"xetroc":1979,"dned":1980,"Ġyek":1981,"Ġdewollof":1982,"Ġserutaef":1983,"Ġssen":1984,"pecrep":1985,"rucco":1986,"decorp":1987,"rtsi":1988,"ue":1989,"tiv":1990,"ges":1991,"Ġerocs":1992,"nitnoc":1993,"ocne":1994,"Ġnret":1995,"Ġsnietorp":1996,"ĠhguohtlA":1997,"ĠretfA":1998,"Ġrettam":1999,"forp":2000,"Ġderedisnoc":2001,"Ġdleif":2002,"siretcarahc":2003,"Ġtniop":2004,"Ġnoruen":2005,"Ġsaerehw":2006,"Ġdetacidni":2007,"Ġsnrettap":2008,"wolla":2009,"Ġsiso":2010,"Ġdetaluclac":2011,"tidua":2012,"002":2013,"hcs":2014,"rut":2015,"cco":2016,"siD":2017,"Ġnommoc":2018,"cus":2019,"spuorg":2020,"eroM":2021,"srod":2022,"Ġralulle":2023,"Ġsreb":2024,"Ġnrettap":2025,"Ġgniyl":2026,"stna":2027,"lupop":2028,"rot":2029,"retna":2030,"xna":2031,"Ġnoitazila":2032,"puS":2033,"tsartnoc":2034,"CC":2035,"Ġedi":2036,"reff":2037,"luci":2038,"xif":2039,"Ġswohs":2040,"Ġdoolb":2041,"Ġlev":2042,"Ġnoitubirtsid":2043,"leym":2044,"Ġedutilpma":2045,"Ġsessecorp":2046,"ĊĊĠĠĊ":2047,"Ġstneme":2048,"arap":2049,"Ġnoitis":2050,"Ġetihw":2051,"Ġdem":2052,"Ġgnieb":2053,"Ġsrotpecer":2054,"Ġdedrocer":2055,"revoeroM":2056,"FN":2057,"hgiew":2058,"erusaem":2059,"lebal":2060,"Ġeg":2061,"Ġmm":2062,"Ġecneref":2063,"ĠĊĠĠĊ":2064,"tegrat":2065,"Ġhcaorppa":2066,"eroferehT":2067,"Ġdeilppa":2068,"Ġpihsnoitaler":2069,"as":2070,"reporp":2071,"Ġkcab":2072,"Ġtluser":2073,"deef":2074,"Ġrewop":2075,"Ġdetset":2076,"simeh":2077,"med":2078,"Ġdessessa":2079,"Ġtnecer":2080,"oto":2081,"Ġner":2082,"noga":2083,"mixam":2084,"Ġnoitaci":2085,"luseR":2086,"sorc":2087,"Ġdetalerroc":2088,"Ġlamina":2089,"Ġnoitidnoc":2090,"Ġ001":2091,"an":2092,"worg":2093,"matulg":2094,"Ġc":2095,"argo":2096,"Ġtluda":2097,"Ġlarutcurts":2098,"Ġselpmas":2099,"AP":2100,"cnitsid":2101,"ylop":2102,"Ġgniwohs":2103,"evit":2104,"Ġod":2105,"Ġtib":2106,"serger":2107,"otorp":2108,"las":2109,"Ġyratnemelp":2110,"Ġsuht":2111,"Ġdnoces":2112,"irdno":2113,"Ġyrotidua":2114,"Ġlairt":2115,"cils":2116,"Ġnoitalupop":2117,"cerp":2118,"irdnohco":2119,"Ġslangis":2120,"Ġgnidrocca":2121,"Ġdohtem":2122,"Ġetis":2123,"iD":2124,"lohw":2125,"cetorp":2126,"/<":2127,"Ġlarberec":2128,"ĠX":2129,"Ġtsael":2130,"ulG":2131,"Ġcinorhc":2132,"Ġnoitcuder":2133,"gnorts":2134,"âĢĶ":2135,"ics":2136,"rub":2137,"DS":2138,"Ġenarbmem":2139,"Ġtcerid":2140,"sk":2141,"Ġesaerced":2142,"mod":2143,"caps":2144,"pelipe":2145,"arts":2146,"CF":2147,"curtsnoc":2148,"Ġstnemirepxe":2149,"ard":2150,"Ġtsi":2151,"ryg":2152,"Ġraenil":2153,"Ġgnidnib":2154,"nU":2155,"Ġero":2156,"Ġdevired":2157,"der":2158,"mota":2159,"teh":2160,"Ġtro":2161,"rats":2162,"unitnoc":2163,"xov":2164,"Ġhsi":2165,"Ġailgorcim":2166,"Ġnoitat":2167,"giro":2168,"noitam":2169,"Ġ05":2170,"ip":2171,"cre":2172,"Ġlacitsitats":2173,"nuom":2174,"revoc":2175,"reh":2176,"Ġnia":2177,"gamad":2178,"syhp":2179,"iretir":2180,"Ġdetceffa":2181,"ffo":2182,"lit":2183,"CG":2184,"nimret":2185,"Ġtneserper":2186,"esu":2187,"ĠIRMf":2188,"Ġssecorp":2189,"RT":2190,"Ġeuq":2191,"Ġcino":2192,"22":2193,"Ġnerdlihc":2194,"idom":2195,"sesa":2196,"PL":2197,"ngi":2198,"Ġer":2199,"ove":2200,"Ġnoitnetta":2201,"nwod":2202,"iB":2203,"dro":2204,"Ġerutu":2205,"ralucitrap":2206,"Ġroirp":2207,"liated":2208,"Ġtrap":2209,"Ġ)%":2210,"Ġsretemarap":2211,"Ġdenimaxe":2212,"Ġdnuo":2213,"Ġsupmacoppih":2214,"Ġyrujni":2215,"Ġtroppus":2216,"seiduts":2217,"iretna":2218,"hto":2219,"Ġgniylrednu":2220,"TR":2221,"Ġstseggus":2222,"irdnohcotim":2223,"Ġdetavitca":2224,"hta":2225,"mos":2226,"Ġnoitar":2227,"elba":2228,"leh":2229,"Ġgniniatnoc":2230,"ruos":2231,"eL":2232,"gm":2233,"Ġenimreted":2234,"pmoC":2235,"AM":2236,"drocer":2237,"Ġyli":2238,"Ġmsinahcem":2239,"Ġsraey":2240,"loser":2241,"Ġetuca":2242,"Ġskrowten":2243,"Ġdlohserht":2244,"goloruen":2245,"Ġecnesba":2246,"EP":2247,"iretirc":2248,"erP":2249,"owt":2250,"revewoh":2251,"Ġlati":2252,"tes":2253,"ĠĊĊ":2254,"elpmaxe":2255,"lbatse":2256,"âĢ¯":2257,"citsalp":2258,"Ġerusop":2259,"seru":2260,"gnel":2261,"Ġdedivorp":2262,"pur":2263,"Ġdetceted":2264,"06":2265,"yad":2266,"Ġstset":2267,"Ġgnidna":2268,"snoitidnoc":2269,"Ġralucsa":2270,"orueN":2271,"vda":2272,"lup":2273,"issop":2274,"Ġlevon":2275,"rup":2276,"Ġsrohtua":2277,"Ġesrev":2278,"ĠstluseR":2279,"teirap":2280,"Ġdesa":2281,"BP":2282,"ĠDS":2283,"Ġtnemevom":2284,"yz":2285,"cudort":2286,"kcab":2287,"Ġdenimreted":2288,"Ġgnirif":2289,"ab":2290,"doirep":2291,"teixna":2292,"Ġdlo":2293,"serppus":2294,"Ġsemit":2295,"Ġelbaliava":2296,"Ġsesaercni":2297,"nevretni":2298,"Ġretteb":2299,"Ġtnemev":2300,"CH":2301,"Ġnoitaly":2302,"netxe":2303,"Ġsnoitcnuf":2304,"cilpmi":2305,"nerap":2306,"Ġdetagitsevni":2307,"Ġnoitarud":2308,"ruo":2309,"wtfo":2310,"Ġlan":2311,"vren":2312,"Ġralucsav":2313,"hcir":2314,"Ġtnaveler":2315,"Ġregral":2316,"bucni":2317,"Ġyrotibihni":2318,"Ġylhgih":2319,"Ġderiuqer":2320,"erc":2321,"ĠaC":2322,"cartni":2323,"Ġhcu":2324,"Ġtupni":2325,"Ġsdohtem":2326,"Ġlacol":2327,"ygolo":2328,"Ġdedne":2329,"Ġgnidnopserroc":2330,"Ġerusopxe":2331,"Ġdoirep":2332,"Ġrojam":2333,"Ġralullec":2334,"ws":2335,"Ġedam":2336,"Ġegami":2337,"Ġerutare":2338,"Ġz":2339,"hcaorppa":2340,"esaesid":2341,"Ġtsu":2342,"08":2343,"uqesbus":2344,"tseretni":2345,"ngised":2346,"lad":2347,"weiver":2348,"RC":2349,"niF":2350,"Ġlanoitidda":2351,"Ġerusaem":2352,"Ġseod":2353,"tnemtaert":2354,"dnah":2355,"psnart":2356,"iced":2357,"Ġgniru":2358,"Ġdne":2359,"Ġytisnetni":2360,"tca":2361,"cso":2362,"âĢĺ":2363,"PP":2364,"Ġelacs":2365,"ylgni":2366,"Ġerutcurts":2367,"idar":2368,"Ġ51":2369,"Ġrota":2370,"Ġytisned":2371,"Ġyfitnedi":2372,"Ġecneulfni":2373,"Ġroiretsop":2374,"getac":2375,"ĠTW":2376,"Ġdio":2377,"ceR":2378,"Ġesaeler":2379,"DI":2380,"Ġsuoirav":2381,"oneg":2382,"hpor":2383,"grus":2384,"songaid":2385,"nimod":2386,"ĠzH":2387,"ĠZ":2388,"lpu":2389,"Ġdetareneg":2390,"llicso":2391,"Ġevren":2392,"Ġnosirapmoc":2393,"getarts":2394,"hcra":2395,"nuocca":2396,"Ġsus":2397,"Ġyawhtap":2398,"eppa":2399,"par":2400,"ita":2401,"eD":2402,"gner":2403,"kco":2404,"Ġsredrosid":2405,"tni":2406,"ladg":2407,"hsa":2408,"dnoces":2409,"Ġroiretna":2410,"ĠyratnemelppuS":2411,"Ġyltcerid":2412,"rehpirep":2413,"Ġos":2414,"miS":2415,"Ġpo":2416,"BC":2417,"ugna":2418,"niaga":2419,"Ġralucelom":2420,"ĠMm":2421,"onummi":2422,"Ġylevita":2423,"Ġselba":2424,"Ġgnitacidni":2425,"artni":2426,"Ġdero":2427,"romem":2428,"TL":2429,"Ġtcapmi":2430,"ls":2431,"satad":2432,"NI":2433,"ĠelihW":2434,"Ġtcejbus":2435,"atniam":2436,"zila":2437,"gis":2438,"Ġdetseggus":2439,"rofni":2440,"Ġkaep":2441,"rtcele":2442,"mitpo":2443,"ded":2444,"Ġnoitingoc":2445,"tsbus":2446,"gga":2447,"slortnoc":2448,"luciffid":2449,"dem":2450,"ĠÎ±":2451,"Ġytivitisnes":2452,"ANR":2453,"riap":2454,"AA":2455,"hteM":2456,"Ġdekove":2457,"ladgyma":2458,"Ġto":2459,"Ġecneuqes":2460,"motana":2461,"Ġli":2462,"iler":2463,"Ġtsartnoc":2464,"ĠAND":2465,"Ġseidob":2466,"sgni":2467,"Ġelu":2468,"hte":2469,"wor":2470,"retse":2471,"Ġnoitisop":2472,"del":2473,"utS":2474,"Ġllits":2475,"naem":2476,"gnerts":2477,"Ġoitar":2478,"ortiv":2479,"Ġoviv":2480,"Ġdemrof":2481,"rohpsohp":2482,"Ġtcnitsid":2483,"Ġhguohtla":2484,"ulb":2485,"iddA":2486,"lacS":2487,"oB":2488,"Ġgnisserpxe":2489,"wot":2490,"minim":2491,"rc":2492,"lab":2493,"renegedoruen":2494,"cefni":2495,"modnar":2496,"xot":2497,"rtceps":2498,"Ġgnitluser":2499,"Ġtceffa":2500,"dixo":2501,"nuoy":2502,"mucca":2503,"nni":2504,"Ġcirta":2505,"Ġ&":2506,"hctam":2507,"TM":2508,"upmoc":2509,"Ġetagitsevni":2510,"ccus":2511,"Ġesac":2512,"Ġdrawer":2513,"TP":2514,"arB":2515,"mmus":2516,"ytiliba":2517,"cseroulf":2518,"Ġycarucca":2519,"Ġlacitirc":2520,"inu":2521,"yllaniF":2522,"bolg":2523,"nur":2524,"Ġnoitom":2525,"lrevo":2526,"Ġssessa":2527,"Ġyrevoc":2528,"CD":2529,"suac":2530,"deen":2531,"ugnal":2532,"Ġdaeh":2533,"srep":2534,"ulcnoc":2535,"Ġyalp":2536,"Ġlateirap":2537,"irrac":2538,"Ġnetfo":2539,"Ġlanoitome":2540,"thg":2541,"Ġelcsum":2542,"Ġsiseneg":2543,"ĠÎ²A":2544,"Ġevoba":2545,"Ġez":2546,"wtfos":2547,"FI":2548,"gla":2549,"Ġtsniaga":2550,"PI":2551,"Ġenummi":2552,"yro":2553,"Ġgnola":2554,"yxo":2555,"sraey":2556,"Ġlaidem":2557,"dilav":2558,"pmis":2559,"Ġlasrod":2560,"Ġelam":2561,"SI":2562,"ĠtA":2563,"Ġsesac":2564,"ihca":2565,"erts":2566,"uepareht":2567,"Ġsnoitces":2568,"rob":2569,"Ġyllau":2570,"llew":2571,"Ġlareneg":2572,"ercs":2573,"ĠANRm":2574,"eB":2575,"yp":2576,"snois":2577,"Ġ42":2578,"erpretni":2579,"losi":2580,"Ġspi":2581,"snoiger":2582,"oreteh":2583,"hcS":2584,"Ġekat":2585,"Ġsksat":2586,"atS":2587,"eneb":2588,"pot":2589,"Ġnoitcejni":2590,"inhcet":2591,"ulli":2592,"NM":2593,"DH":2594,"nemid":2595,"Ġdecne":2596,"ruoc":2597,"licaf":2598,"73":2599,"edi":2600,"vele":2601,"uQ":2602,"mehcsi":2603,"timil":2604,"ĠelbaT":2605,"mul":2606,"cneuqerf":2607,"limaf":2608,"12":2609,"Ġsecna":2610,"Ġlaitini":2611,"Ġnees":2612,"Ġdetceles":2613,"OC":2614,"tan":2615,"pocsor":2616,"ngam":2617,"Ġuat":2618,"Ġnoisrev":2619,"iuqca":2620,"Ġlennahc":2621,"SR":2622,"sle":2623,"Ġevitat":2624,"Ġnoitacol":2625,"dio":2626,"eer":2627,"aC":2628,"Ġlatnorferp":2629,"itpe":2630,"Ġstneserp":2631,"llams":2632,"Ġstniop":2633,"âī":2634,"Ġetubirtnoc":2635,"hpla":2636,"urcer":2637,"Ġllarevo":2638,"ĠenO":2639,"Ġdeniats":2640,"lahp":2641,"Ġmsi":2642,"ujda":2643,"reb":2644,"Ġrehtar":2645,"Ġtar":2646,"dl":2647,"hS":2648,"Ġys":2649,"Ġgnidnatsrednu":2650,"92":2651,"Ġsuoenat":2652,"dohteM":2653,"Ġgnisaercni":2654,"ves":2655,"Ġevif":2656,"Ġsetacidni":2657,"Ġtnemriapmi":2658,"Ġseitreporp":2659,"Ġsyawhtap":2660,"iser":2661,"fsnart":2662,"Ġdecalp":2663,"ssorc":2664,"Ġemoctuo":2665,"oM":2666,"Ġlav":2667,"ssecen":2668,"Ġweiv":2669,"Ġylluf":2670,"Ġnoissim":2671,"cse":2672,"Ġsticifed":2673,"32":2674,"nerhpo":2675,"raeh":2676,"Ġdael":2677,"nerhpozi":2678,"IC":2679,"cirts":2680,"gim":2681,"fihs":2682,"roC":2683,"OS":2684,"Ġdesoporp":2685,"uA":2686,"Ġerutuf":2687,"itra":2688,"Ġrorre":2689,"elborp":2690,"inU":2691,"lusni":2692,"nummoc":2693,"Ġylba":2694,"Ġlacigoloruen":2695,"Ġtnenopmoc":2696,"62":2697,"Ġerofereht":2698,"iled":2699,"RL":2700,"toN":2701,"Ġreyal":2702,"72":2703,"isnart":2704,"Ġnoitartsi":2705,"Ġgurd":2706,"Ġgniniats":2707,"mmalfni":2708,"ĠOK":2709,"nut":2710,"Ġnoisserped":2711,"repus":2712,"ĠnO":2713,"wT":2714,"epyt":2715,"nrael":2716,"Ġweiver":2717,"lC":2718,"DMN":2719,"ylanA":2720,"rohoc":2721,"Ġecafrus":2722,"artnecnoc":2723,"Ġcitsi":2724,"rem":2725,"Ġ,%":2726,"ircsid":2727,"AL":2728,"nimircsid":2729,"ĠFSC":2730,"Ġlarehpirep":2731,"Ġpa":2732,"eH":2733,"Ġlartnev":2734,"Ġstnenopmoc":2735,"dniw":2736,"Ġesiw":2737,"rf":2738,"slairt":2739,"Ġdetcepxe":2740,"Ġtcil":2741,"Ġlatnempoleved":2742,"Ġderiapmi":2743,"ihcysp":2744,"tsujda":2745,"lohc":2746,"Ġyllai":2747,"Ġgniga":2748,"gurd":2749,"lpuoc":2750,"Ġeri":2751,"ddim":2752,"citraP":2753,"wonk":2754,"sserts":2755,"Ġnoitaludom":2756,"ĠDSA":2757,"yS":2758,"ASU":2759,"Ġsek":2760,"Ġlacisyhp":2761,"Ġcituepareht":2762,"diw":2763,"Ġshtnom":2764,"Ġderetla":2765,"itpep":2766,"Ġereves":2767,"xim":2768,"Ġnoisserger":2769,"09":2770,"Ġsuelcun":2771,"Ġnwod":2772,"suc":2773,"Ġderut":2774,"Ġcineg":2775,"ylg":2776,"Ġsetycortsa":2777,"Ġsnoitcaretni":2778,"yltne":2779,"itrap":2780,"her":2781,"ohtap":2782,"Ġdetaulave":2783,"tilicaf":2784,"Ġslennahc":2785,"tnemirepxe":2786,"iW":2787,"82":2788,"nerhpozihcs":2789,"Ġngis":2790,"ĠAVONA":2791,"Ġtseretni":2792,"Ġdeziretcarahc":2793,"ehtse":2794,"ABAG":2795,"lbup":2796,"84":2797,"Ġsusrev":2798,"Ġkcal":2799,"tneiro":2800,"SS":2801,"ereH":2802,"ĠsP":2803,"Ġetalu":2804,"tinom":2805,"htiro":2806,"Ġevitisnes":2807,"gidarap":2808,"ĠU":2809,"Ġdecnahne":2810,"nE":2811,"riv":2812,"Ġyticitsalp":2813,"pursid":2814,"elb":2815,"Ġskeew":2816,"oib":2817,"Ġetartsnomed":2818,"ived":2819,"Ġnoitidda":2820,"Ġevitceffe":2821,"ehT":2822,"av":2823,"srev":2824,"Ġytisrev":2825,"IRM":2826,"sitatS":2827,"Ġtroper":2828,"seta":2829,"Âµ":2830,"Ġredrosid":2831,"Ġnoitceted":2832,"Ġgnorts":2833,"lleb":2834,"cexe":2835,"roporp":2836,"ĠCFP":2837,"Ġecnis":2838,"drooc":2839,"Ġdemrifnoc":2840,"Ġetip":2841,"htapo":2842,"Ġevitu":2843,"Ġderref":2844,"limiS":2845,"Ġseni":2846,"xes":2847,"htirogla":2848,"lah":2849,"Ġstluda":2850,"mirep":2851,"Ġdevorppa":2852,"roivaheb":2853,"Ġgnitset":2854,"Ġnoitartsinimda":2855,"stnapicitrap":2856,"Ġhtgnel":2857,"07":2858,"sA":2859,"Ġdesuac":2860,"ceS":2861,"Ġ04":2862,"Ġyrotaticxe":2863,"sucsid":2864,"Ġdeviecer":2865,"moib":2866,"thgir":2867,"ĠnehW":2868,"ĠelacS":2869,"Ġlacigoloib":2870,"Ġstneve":2871,"tsixe":2872,"Ġ52":2873,"delwonk":2874,"picitraP":2875,"Ġcitir":2876,"neG":2877,"Ġsenil":2878,"ciht":2879,"Ġelt":2880,"tac":2881,"Ġelbat":2882,"rA":2883,"weiv":2884,"engam":2885,"cidem":2886,"Ġesion":2887,"Ġdetaluger":2888,"Ġlasab":2889,"Ġedulcni":2890,"Ġylevitaler":2891,"Ġdetimil":2892,"tup":2893,"raw":2894,"Ġhtworg":2895,"pirc":2896,"gamI":2897,"nuoma":2898,"xelpmoc":2899,"sti":2900,"Ġenimapod":2901,"Ġylralucitrap":2902,"Ġdetcelloc":2903,"Ġlaretalib":2904,"VP":2905,"Ġelamef":2906,"Ġytilauq":2907,"53":2908,"Ġecnairav":2909,"stnemirepxe":2910,"rehto":2911,"pahs":2912,"âĢ²":2913,"Ġredlo":2914,"gnella":2915,"ĠnA":2916,"liaf":2917,"ll":2918,"ĠhcaE":2919,"camra":2920,"nep":2921,"Ġypareht":2922,"Ġsniamer":2923,"buS":2924,"gilo":2925,"Ġlairdnohcotim":2926,"Ġdeknil":2927,"Ġdetaeper":2928,"nnacs":2929,"raeppa":2930,"Ġmeht":2931,"omer":2932,"Ġnoitartnecnoc":2933,"iuqer":2934,"Ġgnidrocer":2935,"tsinimda":2936,"tneme":2937,"Ġylira":2938,"Ġsnoitalerroc":2939,"ei":2940,"Ġgnire":2941,"Ġesuac":2942,"irtam":2943,"Ġdepoleved":2944,"OM":2945,"Ġydobitna":2946,"tibihxe":2947,"nretla":2948,"tairts":2949,"ordyh":2950,"Ġnek":2951,"Ġserut":2952,"ĠAD":2953,"iciffus":2954,"ussa":2955,"gnellahc":2956,"riF":2957,"Ġecnatsid":2958,"mixorppa":2959,"ocit":2960,"Ġsme":2961,"mirepxE":2962,"TG":2963,"ĠPFG":2964,"Ġetal":2965,"Ġcirtaihcysp":2966,"pets":2967,"Ġlabolg":2968,"Ġ50":2969,"Ġscitsiretcarahc":2970,"crep":2971,"rtni":2972,"Ġsisongaid":2973,"greme":2974,"yalpsid":2975,"Ġnoitammalfni":2976,"Ġsetar":2977,"iclac":2978,"RD":2979,"ram":2980,"Ġeerf":2981,"Ġsisehtopyh":2982,"secne":2983,"Ġdezilamron":2984,"Ġstneserper":2985,"Ġralleb":2986,"54":2987,"bol":2988,"Ġgnol":2989,"Ġdenibmoc":2990,"Ġ41":2991,"omoh":2992,"Ġgnine":2993,"oculg":2994,"mag":2995,"cev":2996,"tsni":2997,"Ġrehtona":2998,"hpsimeh":2999,"cepsa":3000,"ugni":3001,"Ġsnoitaretla":3002,"ehtnys":3003,"ĠABAG":3004,"stcejbus":3005,"ged":3006,"Ġdelebal":3007,"Ġsnoitcennoc":3008,"Ġecnacifingis":3009,"ĠIC":3010,"Ġsgnidrocer":3011,"Ġdetamitse":3012,"Ġegamad":3013,"loda":3014,"frep":3015,"hguorht":3016,"solc":3017,"Ġytira":3018,"redom":3019,"hcirne":3020,"Ġhta":3021,"nosni":3022,"Ġdecudorp":3023,"Ġgnir":3024,"sredrosid":3025,"iciffeoc":3026,"Ġ91":3027,"Ġtxetnoc":3028,"lahpecne":3029,"Ġegats":3030,"Ġgnizi":3031,"pmI":3032,"lei":3033,"Ġtcerroc":3034,"bm":3035,"ubirt":3036,"tnecrep":3037,"nops":3038,"mia":3039,"cepse":3040,"Ġdetacol":3041,"Ġecnedi":3042,"mieh":3043,"Ġtneuqesbus":3044,"Ġdnuorg":3045,"Ġcitirdned":3046,"ssalc":3047,"kramoib":3048,"Ġcimo":3049,"hcraeser":3050,"norhcnys":3051,"Ġetaidem":3052,"Ġretsulc":3053,"des":3054,"Ġdetabucni":3055,"IN":3056,"LO":3057,"Ġco":3058,"ile":3059,"Ġegaugnal":3060,"Ġyllaicepse":3061,"IOR":3062,"eS":3063,"ia":3064,"Ġerutaef":3065,"Ġyte":3066,"ĊĠĊĠ":3067,"gahp":3068,"Ġyradnoces":3069,"Ġsedivorp":3070,"py":3071,"ĠPA":3072,"stluser":3073,"Ġerawtfos":3074,"Ġderiap":3075,"Ġlanif":3076,"Ġdetciderp":3077,"Ġtif":3078,"retaM":3079,"itnemed":3080,"Ġevitceles":3081,"tta":3082,"ggirt":3083,"Ġdnuora":3084,"temo":3085,"Ġgnip":3086,"Ġgnidael":3087,"Ġekips":3088,"nir":3089,"lpsid":3090,"RP":3091,"Ġcim":3092,"Ġstup":3093,"Ġso":3094,"kconk":3095,"Ġtpec":3096,"isa":3097,"ilgna":3098,"tseretnI":3099,"carp":3100,"gil":3101,"pany":3102,"Ġseidobitna":3103,"Ġeerged":3104,"AD":3105,"Ġelohw":3106,"ĠstnapicitraP":3107,"Ġgnidne":3108,"Ġgnidnif":3109,"Ġnoitulos":3110,"Ġsrota":3111,"Ġneg":3112,"dda":3113,"zlA":3114,"Ġkcabdeef":3115,"erb":3116,"Ġspihsnoitaler":3117,"ĠII":3118,"htyh":3119,"itnatsbus":3120,"yromem":3121,"Ġytilibairav":3122,"Ġ'":3123,"sd":3124,"ocitroc":3125,"Ġselbairav":3126,"olyma":3127,"dnab":3128,"Ġlanois":3129,"33":3130,"sus":3131,"Ġeye":3132,"Ġdetalu":3133,"Ġdroc":3134,"aN":3135,"kraP":3136,"Ġecuder":3137,"Ġetamatulg":3138,"irepus":3139,"Ġdeen":3140,"ffa":3141,"000":3142,"VS":3143,"miehzlA":3144,"Ġ**":3145,"Ġedortcele":3146,"tupmoc":3147,"Ġlacof":3148,"cile":3149,"pocsorcim":3150,"Ġsmret":3151,"yra":3152,"Ġnoitanibmoc":3153,"Ġwolf":3154,"MS":3155,"ilgnag":3156,"cepS":3157,"star":3158,"CE":3159,"Ġsmetsys":3160,"Ġlacigolohtap":3161,"NDB":3162,"lub":3163,"Ġsetis":3164,"ĠDH":3165,"Ġairetirc":3166,"lat":3167,"gergga":3168,"Ġhce":3169,"ussi":3170,"sna":3171,"lohoc":3172,"Ġthgiew":3173,"litu":3174,"oms":3175,"Ġtnemirepxe":3176,"ylgnitseretnI":3177,"mut":3178,"retal":3179,"Ġyre":3180,"Ġsuryg":3181,"Ġsuovren":3182,"htyhr":3183,"Ġdetcejni":3184,"poep":3185,"Ġwef":3186,"63":3187,"Ġsemoctuo":3188,"Ġcitengam":3189,"Ġcoh":3190,"Ġmumixam":3191,"ĠoN":3192,"Ġsecneuqes":3193,"Ġyarg":3194,"ĠJ":3195,"yawhtap":3196,"otohp":3197,"nogatna":3198,"Ġnoisel":3199,"Ġyrevocer":3200,"tfel":3201,"rager":3202,"Ġgnil":3203,"Ġevorpmi":3204,"Ġetad":3205,"Ġtnemssessa":3206,"dor":3207,"teht":3208,"Ġsnosirapmoc":3209,"gnini":3210,"Ġnoitacifissalc":3211,"PC":3212,"leberec":3213,"Ġralleberec":3214,"krow":3215,"Ġnoitcudorp":3216,"iL":3217,"ĠgnisU":3218,"Ġtcelfer":3219,"Ġlacimotana":3220,"sr":3221,"moC":3222,"yek":3223,"Ġlailg":3224,"Ġefil":3225,"Ġdeifi":3226,"oP":3227,"Ġdexif":3228,"75":3229,"ĠAF":3230,"Ġtahw":3231,"Ġtinu":3232,"Ġdica":3233,"Ġniamod":3234,"ilumits":3235,"Ġ11":3236,"lper":3237,"Ġ000":3238,"za":3239,"Ġyteixna":3240,",.":3241,"Ġnoituloser":3242,"raelc":3243,"Ġlanoxa":3244,"Ġytilibaborp":3245,"uac":3246,"Ġserutcurts":3247,"Ġsespanys":3248,"Ġdep":3249,"Ġortiv":3250,"LP":3251,"Ġseires":3252,"ME":3253,"Ġgnicne":3254,"Ġtsop":3255,"Ġ61":3256,"Ġhcum":3257,"Ġderiuqca":3258,"slamina":3259,"ordnys":3260,"tnemges":3261,"Ġecruos":3262,"retlif":3263,"trap":3264,"iG":3265,"PMA":3266,"yllanoit":3267,"Ġenimaxe":3268,"tob":3269,"RO":3270,"Ġetelpmoc":3271,"Ġralucitrap":3272,"Ġnopu":3273,"Ġecaps":3274,"Ġylniam":3275,"ytis":3276,"Ġsnaem":3277,"ĠlacitsitatS":3278,"Ġdesopxe":3279,"ĠRCP":3280,"otpop":3281,"83":3282,"ĠgniruD":3283,"snoc":3284,"BA":3285,"Ġretaw":3286,"niter":3287,"Ġdetibihxe":3288,"minA":3289,"noitalumits":3290,"eihca":3291,"darg":3292,"Ġnoitcnufsyd":3293,"Ġdnah":3294,"Ġniat":3295,"Ġnos":3296,"retra":3297,"Ġdevorpmi":3298,"Ġlaicif":3299,"serdda":3300,"cude":3301,"Ġelddim":3302,"Ġnoitisiuqca":3303,"Ġsnoitca":3304,"ĠQ":3305,"nib":3306,"Ġnoitcudort":3307,"ĠmÎ¼":3308,"camrahp":3309,"Ġxis":3310,"Ġaladgyma":3311,"Ġnai":3312,"Ġnoitareneg":3313,"Ġeda":3314,"Rim":3315,"lohocla":3316,"Ġroirepus":3317,"cih":3318,"olpme":3319,"MD":3320,"refil":3321,"Ġgniro":3322,"lella":3323,"hP":3324,"slevel":3325,"Ġscimanyd":3326,"Ġgnikrow":3327,"tlov":3328,"Ġloc":3329,"VI":3330,"stceffe":3331,"bA":3332,"Ġamsalp":3333,"Ġtuohguorht":3334,"Ġnoissuc":3335,"Ġmuiclac":3336,"TD":3337,"BB":3338,"-)":3339,"Ġtnatum":3340,"ĊĠĠĠĠĊ":3341,"cip":3342,"Ġecudni":3343,"Ġdrawot":3344,"ward":3345,"Ġdezis":3346,"Ġnoitcerid":3347,"Ġseuq":3348,"cirtser":3349,"Ġsmrof":3350,"Ġngised":3351,"Ġmures":3352,"Ġdetavele":3353,"Ġediw":3354,"daeh":3355,"tsriF":3356,"pircsu":3357,"Ġesop":3358,"otpopa":3359,"Ġdnab":3360,"Ġxedni":3361,"diug":3362,"argorp":3363,"sseccus":3364,"Ġgnuoy":3365,"Ġ81":3366,"Ġlailgorcim":3367,"Ġ*":3368,"nietorp":3369,"elgnis":3370,"Ġdellortnoc":3371,"Ġyllacitsitats":3372,"ytivit":3373,"ehtsena":3374,"Ġrae":3375,"57":3376,"Ġtcejbo":3377,"pircsunam":3378,"pS":3379,"ĠÏ":3380,"hcaer":3381,"refilorp":3382,"Ġdetcerroc":3383,"dliw":3384,"Ġsuoenatnops":3385,"mÎ¼":3386,"seiti":3387,"Ġesruoc":3388,"Ġylra":3389,"Ġcimalaht":3390,"Ġetaulave":3391,"nimreted":3392,"talp":3393,"Ġdenoit":3394,"atem":3395,"enik":3396,"krowten":3397,"Ġsec":3398,"1000":3399,"teca":3400,"Ġsdael":3401,"Ġsrekram":3402,"Ġesod":3403,"lsnart":3404,"Ġretal":3405,"cseloda":3406,"Ġdehsilbatse":3407,"tnempoleved":3408,"sledom":3409,"nidrooc":3410,"crexe":3411,"dimar":3412,"Ġmodnar":3413,"Ġdetluser":3414,"Ġhceeps":3415,"Ġtsal":3416,"revnoc":3417,"Ġcimanyd":3418,"Ġregnol":3419,"Ġyrotcaf":3420,"gerp":3421,"Ġgnidocne":3422,"opmoc":3423,"Ġytireves":3424,"idrac":3425,"draw":3426,"cnI":3427,"yllanoitiddA":3428,"geb":3429,"Ġtso":3430,"Ġmaerts":3431,"Ġhtgnerts":3432,"uqs":3433,"gk":3434,"Ġ06":3435,"Ġsnoxa":3436,"ĠsisylanA":3437,"situa":3438,"temm":3439,"Ġraef":3440,"Ġspam":3441,"Ġcigrenima":3442,"Ġegatnecrep":3443,"MA":3444,"Ġsnoisel":3445,"af":3446,"ĠY":3447,"NP":3448,"Ġylgnorts":3449,"Ġereh":3450,"set":3451,"ssen":3452,"Ġdeiduts":3453,"lamronba":3454,"Ġtnapicitrap":3455,"sal":3456,"Ġdehsa":3457,"Ġsnoitatum":3458,"Ġdethgiew":3459,"Ġstupni":3460,"pinam":3461,"Ġlatairts":3462,"Ġnepo":3463,"trohs":3464,"unetta":3465,"grene":3466,"Ġsuoiv":3467,"Ġdeya":3468,"Ġnoitacilppa":3469,"diser":3470,"Ġnevird":3471,"Ġselu":3472,"tsnoc":3473,"Ġnoitatum":3474,"taht":3475,"hpargo":3476,"Ġyllacificeps":3477,"Ġstnemevom":3478,"itaP":3479,"Ġgna":3480,"reP":3481,"ciffe":3482,"irporppa":3483,"43":3484,"orhc":3485,"Ġxes":3486,"Ġnoisses":3487,"ini":3488,"Ġsne":3489,"Ġdnif":3490,"ĠsC":3491,"ĠMW":3492,"Ġevitarenegedoruen":3493,"Ġtnuoma":3494,"uod":3495,"rets":3496,"Ġsnoitartnecnoc":3497,"Ġdehctam":3498,"alpxe":3499,"ohcysp":3500,"cihev":3501,"esnopser":3502,"Ġsuonego":3503,"Ġlacimehc":3504,"ON":3505,"leht":3506,"ved":3507,"Ġnaidem":3508,"duti":3509,"ffub":3510,"ĠW":3511,"yrujni":3512,"mot":3513,"mI":3514,"Ġpets":3515,"Ġyspelipe":3516,"Ġnoissimsnart":3517,"Ġylev":3518,"Ġlit":3519,"Ġdeyalpsid":3520,"supmacoppih":3521,"nerru":3522,"Ġcitpany":3523,"curtsni":3524,"noitu":3525,"Ġren":3526,"Ġhtlaeh":3527,"BD":3528,"Ġrucco":3529,"Ġeciohc":3530,"gnic":3531,"dimaryp":3532,"idra":3533,"ĠecniS":3534,"Ġnoitces":3535,"MB":3536,"Ġlocotorp":3537,"nemo":3538,"tsil":3539,"srot":3540,"sam":3541,"Ġnoitingocer":3542,"ĠIBT":3543,"sesylana":3544,"Ġnoitaler":3545,"ĠSNC":3546,"Ġlacigolohcysp":3547,"ysa":3548,"ite":3549,"Ġseno":3550,"Ġsedortcele":3551,"Ġecnerefer":3552,"loot":3553,"tif":3554,"Ġecudorp":3555,"tnemelpmi":3556,"Ġdoof":3557,"tsiser":3558,"icifed":3559,"icS":3560,"ees":3561,"Ġtcaf":3562,"iretaM":3563,"Ġtnuocca":3564,"23":3565,"xel":3566,"gerpu":3567,"moso":3568,"rogetac":3569,"Ġygolohtap":3570,"ec":3571,"Ġelpoep":3572,"stnem":3573,"gnik":3574,"Ġsroivaheb":3575,"noisserpxe":3576,"oN":3577,"llac":3578,"tirw":3579,"Ġwolla":3580,"riht":3581,"capac":3582,"Ġevitcetorp":3583,"Ġxirtam":3584,"Ġnretse":3585,"Ġecneirepxe":3586,"Ġtrohoc":3587,"rbme":3588,"cnirp":3589,"Ġralullecartxe":3590,"ecnamrofrep":3591,"ocol":3592,"Ġcimehcsi":3593,"ĠyehT":3594,"Ġyrassecen":3595,"Ġelbairav":3596,"ngiS":3597,"Ġsnoitaicossa":3598,"ĠytisrevinU":3599,"Ġsnoitalupop":3600,"Ġyreve":3601,"Ġ002":3602,"Ġtneiciffus":3603,"elp":3604,"Ġrellams":3605,"yzne":3606,"Ġlainar":3607,"Ġdetupmoc":3608,"ceB":3609,"Ġsretsulc":3610,"Ġnoitciderp":3611,"Ġerudecorp":3612,"Ġhtaed":3613,"gnissecorp":3614,"ĠnoitcudortnI":3615,"noiger":3616,"oT":3617,"Ġsetats":3618,"Ġdeniart":3619,"Ġnekat":3620,"sepyt":3621,"Ġ31":3622,"DT":3623,"rtsulli":3624,"Ġstinu":3625,"Ġeruzies":3626,"Ġgnipoleved":3627,"hr":3628,"arra":3629,"vivrus":3630,"Ġecnelav":3631,"IP":3632,"Ġstegrat":3633,"'re":3634,"nkciht":3635,"Ġyllaitnetop":3636,"ĠhtoB":3637,"Ġyrosne":3638,"utis":3639,"scit":3640,"amod":3641,"Ġseu":3642,"Ġnam":3643,"Ġtseb":3644,"ĠRO":3645,"utits":3646,"Ġtxen":3647,"SPE":3648,"TH":3649,"Ġylimaf":3650,"Ġyllacipyt":3651,"Ġytiro":3652,"Ġnoitatneserper":3653,"lcyc":3654,"Ġyletamixorppa":3655,"sipe":3656,"93":3657,"loC":3658,"Ġnoitazilacol":3659,"nosnikraP":3660,"gnit":3661,"laer":3662,"Ġyrotaro":3663,"rah":3664,"enegoreteh":3665,"ĠsdohteM":3666,"Ġtceted":3667,"RH":3668,"deed":3669,"Ġecnecseroulf":3670,"ĠfI":3671,"Ġlitnu":3672,"Ġylb":3673,"ax":3674,"agen":3675,"Ġnoitalyrohpsohp":3676,"Ġroirefni":3677,"Ġsecils":3678,"lairt":3679,"irter":3680,"utingam":3681,"sserp":3682,"ĠnoissucsiD":3683,"Ġgnikam":3684,"Ġgniyf":3685,"ĠCH":3686,"citcarp":3687,"rT":3688,"sy":3689,"Ġyrotcaflo":3690,"Ġdesucof":3691,"rever":3692,"cin":3693,"tits":3694,"Ġlavretni":3695,"Ġahpla":3696,"Ġnoitpecrep":3697,"Ġtnetxe":3698,"Ġrab":3699,"Ġraelc":3700,"Ġladimaryp":3701,"Ġtonnac":3702,"Ġlanigiro":3703,"lartnoc":3704,"Ġrekram":3705,"Ġsniarb":3706,"40":3707,"LB":3708,"Ġdeirrac":3709,"ĠsANR":3710,"Ġlluf":3711,"niap":3712,"Ġdedeen":3713,"Ġpam":3714,"ciM":3715,"emoh":3716,"evoba":3717,"ral":3718,"nretxe":3719,"locotorp":3720,"Ġtrohs":3721,"Ġateb":3722,"56":3723,"ĠyB":3724,"ĠSR":3725,"SG":3726,"Ġgnidnu":3727,"Ġreffid":3728,"Ġseil":3729,"Ġdengised":3730,"esahp":3731,"Ġstnairav":3732,"Ġelbats":3733,"Ġlanretni":3734,"Ġlaniduti":3735,"Ġylevis":3736,"Ġsesaesid":3737,"syad":3738,"Ġdegareva":3739,"Ġtuptuo":3740,"Ġlaitnesse":3741,"gif":3742,"Ġffo":3743,"Ġycnetal":3744,"got":3745,"Ġpot":3746,"ilrae":3747,"EH":3748,"Ġdeeps":3749,"ii":3750,"atso":3751,"Ġerutaretil":3752,"Ġrek":3753,"Ġtser":3754,"cnuj":3755,"FL":3756,"Ġrehtegot":3757,"picco":3758,"rtu":3759,"timsnart":3760,"sira":3761,"leiy":3762,"tsal":3763,"revO":3764,"ĠSMT":3765,"Ġtnetsis":3766,"FNT":3767,"Ġlamronba":3768,"Ġyrotsih":3769,"Ġyltnecer":3770,"Ġralullecartni":3771,"deednI":3772,"narg":3773,"ĠniarB":3774,"MW":3775,"pil":3776,"Ġmoor":3777,"Ġnoxa":3778,"iteper":3779,"liforp":3780,"Ġllu":3781,"Ġq":3782,"tsaf":3783,"noitavitca":3784,"deM":3785,"tamos":3786,"retnuoc":3787,"Ġcigrenimapod":3788,"ulcnoC":3789,"Ġdecna":3790,"lpmi":3791,"Ġerutam":3792,"Ġnoitroporp":3793,"Ġais":3794,"tare":3795,"TI":3796,"ĊĠĊĠĊ":3797,"Ġstes":3798,"RG":3799,"giS":3800,"Ġsucof":3801,"cisev":3802,"EN":3803,"Ġecnalab":3804,"wa":3805,"noitazi":3806,"Ġsrebmun":3807,"uf":3808,"Ġnoitcaer":3809,"noser":3810,"lus":3811,"names":3812,"xelf":3813,"Ġcitsongaid":3814,"Ġ71":3815,"TN":3816,"Ġerapmoc":3817,"Ġena":3818,"Ġepytonehp":3819,"Ġdooh":3820,"fe":3821,"orter":3822,"ez":3823,"Ġeulb":3824,"Ġdetcartxe":3825,"Ġmc":3826,"Ġecalp":3827,"daol":3828,"LG":3829,"desu":3830,"Ġdetalosi":3831,"MES":3832,"Ġlaitnereffid":3833,"verp":3834,"Ġlacipyt":3835,"yltna":3836,"LC":3837,"Ġtnemnorivne":3838,"Ġkcolb":3839,"Ġekam":3840,"PFG":3841,"Ġgnidrager":3842,"Ġsv":3843,"Ġsisab":3844,"usnoc":3845,"raeseR":3846,"sulumits":3847,"pA":3848,"nhcet":3849,"Ġetareneg":3850,"Ġtnemevorpmi":3851,"law":3852,"ffe":3853,"ĠslairetaM":3854,"lavretni":3855,"fosi":3856,"srotcaf":3857,"Ġdetcennoc":3858,"tiws":3859,"raperp":3860,"syl":3861,"reG":3862,"isni":3863,"Ġsaib":3864,"Ġsuounitnoc":3865,"Ġlatan":3866,"emarf":3867,"Ġkeew":3868,"Ġgnivlovni":3869,"Ġmuidem":3870,"suryg":3871,"Ġdewolla":3872,"Ġnoitati":3873,"tua":3874,"Ġdedulcxe":3875,"Ġstcepsa":3876,"Ġpleh":3877,"nommoc":3878,"Ġdetacilpmi":3879,"Ġerolpxe":3880,"Ġned":3881,"bor":3882,"Ġainerhpozihcs":3883,"noto":3884,"seD":3885,"Ġetarapes":3886,"IS":3887,"etats":3888,"vitom":3889,"ispi":3890,"ĠhtiW":3891,"Ġstca":3892,"Ġnoitceles":3893,"cra":3894,"Ġcisni":3895,"laci":3896,"Ġtibihxe":3897,"Ġsegats":3898,"olp":3899,"nibmoc":3900,"ĠFNDB":3901,"ton":3902,"oH":3903,"cefsnart":3904,"Ġnoitpircsnart":3905,"46":3906,"Ġevitceps":3907,"Ġsehcaorppa":3908,"yolpme":3909,"gninrael":3910,"Ġnoitaru":3911,"port":3912,"Î²A":3913,"retam":3914,"Ġdetneserper":3915,"elohw":3916,"Ġegdelwonk":3917,"cirtnev":3918,"gI":3919,"Ġyliad":3920,"cal":3921,"Ġtcilfnoc":3922,"AF":3923,"sesnopser":3924,"MP":3925,"ĠAP":3926,"ĠTH":3927,"ĠcigreABAG":3928,"ugnitsid":3929,"sksat":3930,"Ġdedivid":3931,"Ġstnemerusaem":3932,"Ġcilobatem":3933,"Ġkra":3934,"Ġreppu":3935,"tceffe":3936,"peels":3937,"Ġerac":3938,"Ġlaniter":3939,"CL":3940,"Ġ12":3941,"hpargom":3942,"Ġv":3943,"love":3944,"Ġtey":3945,"dica":3946,"Ġerutarepmet":3947,"ekorts":3948,"rehpsimeh":3949,"nummI":3950,"Ġetaluger":3951,"noisserped":3952,"smotpmys":3953,"Ġytilibissop":3954,"Ġnoitazinagro":3955,"ĠlC":3956,"Ġtciderp":3957,"VOC":3958,"Ġmia":3959,"Ġerehpsimeh":3960,"AVONA":3961,"9002":3962,"Ġros":3963,"Ġseuc":3964,"thgi":3965,"Ġwodniw":3966,"Ġsutats":3967,"Ġnoissergorp":3968,"Ġnoitargetni":3969,"brev":3970,"Ġeuqinu":3971,"Ġecnatropmi":3972,"Ġtnemevlovni":3973,"Ġnais":3974,"yr":3975,"noitseuq":3976,"Ġgnirapmoc":3977,"doM":3978,"Ġwoleb":3979,"Ġdetsujda":3980,"worra":3981,"LOB":3982,"Ġsdnu":3983,"ID":3984,"Ġlm":3985,"sod":3986,"sem":3987,"Ġlanidutignol":3988,"snepmoc":3989,"Ġdlim":3990,"tnavda":3991,"Ġsyalp":3992,"grahc":3993,"AE":3994,"ubirtta":3995,"Ġsnamuh":3996,"saera":3997,"Ġtsubor":3998,"UA":3999,"Ġdlof":4000,"Ġcinego":4001,"ito":4002,"dnoceS":4003,"tuc":4004,"Ġdehsilbup":4005,"ĠSLA":4006,"Ġnialpxe":4007,"lyhtem":4008,"remo":4009,"Ġgnitser":4010,"TT":4011,"droc":4012,"deb":4013,"Ġsdra":4014,"Ġycaciffe":4015,"muloc":4016,"Ġnoitnevretni":4017,"Ġgnivah":4018,"Ġecnanoser":4019,"Ġretnec":4020,"vomer":4021,"Ġytici":4022,"ettim":4023,"Ġlate":4024,"Ġdetag":4025,"Ġdedda":4026,"curtsnocer":4027,"Ġseiceps":4028,"ĠTR":4029,"temaid":4030,"Ġetamitse":4031,"Ġnoitalumucca":4032,"dnepedni":4033,"htE":4034,"luv":4035,"Ġyaled":4036,"Ġaitnemed":4037,"Ġelpmis":4038,"EL":4039,"Ġlohocla":4040,"sega":4041,"ropmet":4042,"Ġsumalaht":4043,"ezis":4044,"ĠCP":4045,"Ġevitucexe":4046,"TV":4047,"Ġdl":4048,"seit":4049,"itnauQ":4050,"psa":4051,"Ġdeniamer":4052,"icsnoc":4053,"Ġgnigamioruen":4054,"Ġnoitaitnereffid":4055,"Ġsnoisses":4056,"Ġsixa":4057,"ĠneviG":4058,"eti":4059,"Ġelcyc":4060,"Ġdnatsrednu":4061,"ylra":4062,"Ġnoisuffid":4063,"Ġygrene":4064,"Ġmrofrep":4065,"Ġdiolyma":4066,"Ġthguoht":4067,"nileym":4068,"bar":4069,"fa":4070,"Ġlamitpo":4071,"Ġsrucco":4072,"Ġwols":4073,"Ġevitadixo":4074,"ecalp":4075,"dnedo":4076,"Ġsret":4077,"Ġsraeppa":4078,"Ġretro":4079,"cilper":4080,"ida":4081,"IA":4082,"Ġenilced":4083,"Ġlavivrus":4084,"hport":4085,"orrus":4086,"Ġevitatitnauq":4087,"99":4088,"ĠowT":4089,"Ġtsehgih":4090,"ediv":4091,"rtuen":4092,"ĠdesaB":4093,"Ġselam":4094,"kcolb":4095,"Ġ005":4096,"Ġnoisiced":4097,"lced":4098,"KP":4099,"Ġetairporppa":4100,"Ġseitivitca":4101,"Ġesoculg":4102,"OP":4103,"liW":4104,"Ġmul":4105,"sesac":4106,"finam":4107,"idarg":4108,"neher":4109,"55":4110,"24":4111,"Ġgnidiv":4112,"sessecorp":4113,"tel":4114,"ili":4115,"Ġstroper":4116,"ssev":4117,"Ġretemarap":4118,"hporcam":4119,"Ġderetsinimda":4120,"Ġotno":4121,"cric":4122,"ĠRA":4123,"cejart":4124,"Ġdemrofni":4125,"Ġriap":4126,"Ġeritne":4127,"noitalupop":4128,"Ġlaretalartnoc":4129,"bmil":4130,"tirdned":4131,"Ġdrow":4132,"Ġmutairts":4133,"ĠserugiF":4134,"Ġdriht":4135,"Ġlacidem":4136,"lis":4137,"tned":4138,"ED":4139,"Ġniamer":4140,"Ġsrebif":4141,"74":4142,"nikotyc":4143,"Ġnoitcerroc":4144,"picnirp":4145,"etsys":4146,"cseroul":4147,"Ġdenialpxe":4148,"Ġygoloisyhp":4149,"ĠHp":4150,"ÎĶ":4151,"Ġlacirtcele":4152,"Ġmahs":4153,"Ġsesuac":4154,"Ġyassa":4155,"oiB":4156,"Ġraeppa":4157,"stset":4158,"ĠesuaceB":4159,"Ġytirojam":4160,"GA":4161,"Ġkco":4162,"ycne":4163,"Ġ:)":4164,"Ġseruzies":4165,"Ġniatrec":4166,"Ġdipar":4167,"Ġelpmaxe":4168,"doo":4169,"Ġgniwol":4170,"rP":4171,"76":4172,"ov":4173,"Ġlanretxe":4174,"Ġielcun":4175,"Ġdoog":4176,"otsih":4177,"Ġcitpanystsop":4178,"Ġyltna":4179,"serut":4180,"erces":4181,"PB":4182,"Ġnoitaulave":4183,"Ġyllacitam":4184,"nert":4185,"uorG":4186,"Ġnoitubirtnoc":4187,"Ġseriuqer":4188,"Ġsriap":4189,"atsoemoh":4190,"Ġswolla":4191,"Ġateht":4192,"pecnoc":4193,"otyco":4194,"Ġsuonegodne":4195,"nihC":4196,"Ġygetarts":4197,"cilppa":4198,"reffa":4199,"Ġsnoruenretni":4200,"tneve":4201,"hgilhgih":4202,"gniniart":4203,"Ġselor":4204,"aera":4205,"curc":4206,"remun":4207,"ĠsuoiverP":4208,"Ġreffub":4209,"Ġnoitairav":4210,"noitamrofni":4211,"Ġgnidoc":4212,"egot":4213,"rehtegot":4214,"mA":4215,"Ġsgurd":4216,"awa":4217,"meht":4218,"oced":4219,"SD":4220,"dnal":4221,"Ġdeu":4222,"Ġedutingam":4223,"Ġrebif":4224,"itpec":4225,"GEE":4226,"laeH":4227,"eulb":4228,"cificepS":4229,"Ġeuc":4230,"Ġerutluc":4231,"uart":4232,"ngocer":4233,"Ġytilibaticxe":4234,"Ġtsaf":4235,"Ġnoitaro":4236,"Ġslaitnetop":4237,"loF":4238,"Ġcitnames":4239,"referp":4240,"Ġlautpecrep":4241,"Ġeslup":4242,"Ġgniz":4243,"Ġrael":4244,"wen":4245,"Ġammag":4246,"Ġknil":4247,"MG":4248,"neherpmoc":4249,"necs":4250,"Ġevitciderp":4251,"ĠetoN":4252,"Ġcinegsnart":4253,"Ġralo":4254,"bah":4255,"Ġdeliated":4256,"Ġcigreni":4257,"Ġtiucric":4258,"recnoc":4259,"Ġnoitatneserp":4260,"ccas":4261,"Ġylegral":4262,"Ġylts":4263,"Ġnoitcudni":4264,"Ġsnoitallicso":4265,"erus":4266,"Ġetalugnic":4267,"pxe":4268,"Ġdetroppus":4269,"Ġlatipicco":4270,"oj":4271,"baL":4272,"DSA":4273,"Ġsyaw":4274,"ordnedo":4275,"gola":4276,"Ġselamef":4277,"ralo":4278,"Ġseci":4279,"Ġylmodnar":4280,"sav":4281,"yre":4282,"Ġpeed":4283,"Ġerusserp":4284,"Ġmus":4285,"hsiF":4286,"Ġdnuorgkcab":4287,"reviled":4288,"citroc":4289,"Ġesanik":4290,"narT":4291,"44":4292,"ixelf":4293,"DF":4294,"ĠstneitaP":4295,"murts":4296,"Ġlanoiger":4297,"tpircsunam":4298,"xob":4299,"erutare":4300,"Ġdetubirtsid":4301,"Ġstnerruc":4302,"Ġraelcun":4303,"Ġcitpanyserp":4304,"efil":4305,"âī¥":4306,"iV":4307,"Ġebol":4308,"not":4309,"noitar":4310,"Ġsecaf":4311,"itpecsus":4312,"HT":4313,"onA":4314,"nimoderp":4315,"AB":4316,"luM":4317,"Ġmhtirogla":4318,"Ġ34":4319,"Ġtsum":4320,"Ġstsi":4321,"ruoh":4322,"Ġylediw":4323,"tatS":4324,"ĠICM":4325,"yteixna":4326,"ĠSBP":4327,"SN":4328,"ylralimiS":4329,"Ġdrawrof":4330,"Ġroop":4331,"ilimaf":4332,"ĊĊĊĠĠĊ":4333,"Ġlanimret":4334,"Ġdeifitnauq":4335,"cudortni":4336,"nos":4337,"RI":4338,"itsev":4339,"Ġkcalb":4340,"eci":4341,"rehoc":4342,"Ġsts":4343,"Ġroloc":4344,"Ġdevomer":4345,"Ġdexim":4346,"Ġydaer":4347,"Ġsrab":4348,"Ġmulleberec":4349,"Ġseitiliba":4350,"Ġstiucric":4351,"ĠTC":4352,"sesaesid":4353,"Ġseitilamronba":4354,"Ġsdrow":4355,"TF":4356,"esi":4357,"Ġlaever":4358,"Ġcisnirtni":4359,"Ġderutluc":4360,"Ġseigetarts":4361,"Ġniag":4362,"htaporuen":4363,"ylo":4364,"Ġderevoc":4365,"nilC":4366,"rek":4367,"Ġsemulov":4368,"dlo":4369,"Ġsred":4370,"ĠSCD":4371,"13":4372,"Ġdeifidom":4373,"Ġesicrexe":4374,"Ġpoleved":4375,"Ġtluciffid":4376,"Ġesolc":4377,"Ġderrucco":4378,"pup":4379,"Ġtcepser":4380,"Ġnoisiv":4381,"Ġdeweiver":4382,"reveS":4383,"Ġsem":4384,"Ġgnitegrat":4385,"Ġyllareneg":4386,"noB":4387,"tropmI":4388,"Ġelbisnopser":4389,"nemonehp":4390,"Ġssenkciht":4391,"EV":4392,"dosipe":4393,"Ġmuid":4394,"thgil":4395,"Ġserutluc":4396,"Ġnoitavresbo":4397,"rtsbus":4398,"rueN":4399,"irP":4400,"amgiS":4401,"Ġ?":4402,"Ġenilas":4403,"Ġgninoitidnoc":4404,"gnoc":4405,"notores":4406,"Ġhcra":4407,"Ġsserpxe":4408,"skrowten":4409,"seulav":4410,"seneg":4411,"Ġtnelav":4412,"Ġlacitrocbus":4413,"Ġnoitpm":4414,"nozi":4415,"ET":4416,"Ġgnihc":4417,"noruen":4418,"yllacificepS":4419,"cefed":4420,"diova":4421,"Ġevitcepser":4422,"mahc":4423,"tneserpeR":4424,"Ġdessecorp":4425,"reffiD":4426,"CFP":4427,"Ġregnorts":4428,"acoc":4429,"Ġtnerap":4430,"Ġgnippa":4431,"ilas":4432,"iecrep":4433,"nrevo":4434,"Ġylnommoc":4435,"ĠhcraeseR":4436,"OD":4437,"Ġxob":4438,"ĠĠĠĠ":4439,"neerg":4440,"Ġseicneuqerf":4441,"sseleht":4442,"Ġlaicurc":4443,"ordnedogilo":4444,"trapmoc":4445,"nahte":4446,"Ġtni":4447,"Ġyliramirp":4448,"rE":4449,"Ġralub":4450,"Ġgninni":4451,"Ġrotcev":4452,"etar":4453,"Ġelttil":4454,"Ġtnew":4455,"mixorp":4456,"Ġyletaidem":4457,"Ġdetubirtnoc":4458,"Ġenola":4459,"Ġgniniamer":4460,"64":4461,"Ġgnidaer":4462,"tek":4463,"Ġko":4464,"ĠDLOB":4465,"Ġdetcerid":4466,"Ġnoisserppus":4467,"arG":4468,"srotpecer":4469,"cat":4470,"Ġecnedifnoc":4471,"eileb":4472,"Ġsesu":4473,"Ġdetaludom":4474,"Ġevitanretla":4475,"Ġevissergorp":4476,"Ġdeniatniam":4477,"Ġflah":4478,"Ġeditpep":4479,"Ġmurtceps":4480,"snoitcnuf":4481,"rtsimehc":4482,"gahpotua":4483,"alp":4484,"jda":4485,"ecaf":4486,"Ġetipsed":4487,"Ġnoitome":4488,"Ġdeksa":4489,"drocca":4490,"ngila":4491,"erugiF":4492,"omehc":4493,"Ġlufesu":4494,"lyrohpsohp":4495,"colev":4496,"Ġlabrev":4497,"Ġerutan":4498,"34":4499,"Ġevitarepo":4500,"xetnoc":4501,"celE":4502,"urgnoc":4503,"Ġetaredom":4504,"Ġrotibihni":4505,"ngissa":4506,"napmoc":4507,"Ġdetegrat":4508,"Ġtfihs":4509,"Ġnoisserp":4510,"Ġemoceb":4511,"mert":4512,"Ġlexov":4513,"Ġat":4514,"Ġkrad":4515,"VAA":4516,"Ġnoitacifitnedi":4517,"Ġdezisehtopyh":4518,"Ġnot":4519,"Ġsesaerced":4520,"Ġgniraeh":4521,"gnif":4522,"erets":4523,"Ġreg":4524,"Ġgnilpuoc":4525,"Ġpalrevo":4526,"ĠevitatneserpeR":4527,"Ġlatnemnorivne":4528,"Ġnoitav":4529,"niat":4530,"Ġelbarapmoc":4531,"erga":4532,"rehT":4533,"norp":4534,"Ġselc":4535,"Ġdegnahc":4536,"Ġthgie":4537,"Ġnoitacifi":4538,"Ġsnoitcejorp":4539,"Ġyticificeps":4540,"ibrom":4541,"cnanif":4542,"rib":4543,"ĠSA":4544,"Ġtnatsnoc":4545,"Ġdaer":4546,"Ġeriuqer":4547,"gd":4548,"US":4549,"nwohs":4550,"TW":4551,"Ġsn":4552,"cod":4553,"pip":4554,"ceti":4555,"cnuF":4556,"relec":4557,"Ġreilrae":4558,"tesno":4559,"irg":4560,"ĠrehtonA":4561,"ydob":4562,"tiurcer":4563,"Ġelcitra":4564,"Ġydaerla":4565,"Ġniatbo":4566,"ĠfO":4567,"Ġetomorp":4568,"nhce":4569,"Ġnoitag":4570,"Ġsuoi":4571,"86":4572,"nit":4573,"osi":4574,"Ġserudecorp":4575,"rav":4576,"noitca":4577,"Ġlarutan":4578,"dee":4579,"Ġsrorre":4580,"Ġmra":4581,"taer":4582,"ylba":4583,"Ġgnimit":4584,"Ġsdna":4585,"Ġcig":4586,"Ġlanoitnetta":4587,"liub":4588,"Ġdehcirne":4589,"ĠsR":4590,"orht":4591,"Ġraey":4592,"Ġgniledom":4593,"noisses":4594,"rotcaf":4595,"sel":4596,"Ġdemia":4597,"ĠetipseD":4598,"Ġgk":4599,"sohc":4600,"yltnatropmI":4601,"Ġlanoisnemid":4602,"Ġmgidarap":4603,"Ġyticapac":4604,"Ġog":4605,"batad":4606,"Ġlaicnanif":4607,"Ġdetsisnoc":4608,"Ġsedutilpma":4609,"Ġbmil":4610,"20":4611,"Ġnoitatneiro":4612,"Ġepo":4613,"aG":4614,"Ġderaeppa":4615,"Ġhsif":4616,"Ġdetelpmoc":4617,"nedi":4618,"Ġloot":4619,"Ġeborp":4620,"smetsys":4621,"eled":4622,"noitnetta":4623,"Ġsetamitse":4624,"Ġyalpsid":4625,"ĠMÎ¼":4626,"âī¤":4627,"Ġdellac":4628,"negorp":4629,"irB":4630,"Ġsniamod":4631,"Ġmsilobatem":4632,"esac":4633,"DIVOC":4634,"rammus":4635,"Ġdetiurcer":4636,"cetihcra":4637,"Ġdesi":4638,"ripser":4639,"Ġseuqinhcet":4640,"eerf":4641,"ulos":4642,"siso":4643,"ivaheB":4644,"mar":4645,"Ġhp":4646,"ĠnretseW":4647,"ortnoC":4648,"Ġetaludom":4649,"Ġdetto":4650,"PAM":4651,"LE":4652,"avni":4653,"shtnom":4654,"relecca":4655,"CN":4656,"Ġsmees":4657,"reS":4658,"irosnes":4659,"ulov":4660,"Ġgnim":4661,"PN":4662,"ĠNO":4663,"nigiro":4664,"Ġecnereferp":4665,"Ġlaitrap":4666,"Ġderap":4667,"Ġdoo":4668,"ĠeciM":4669,"Ġ003":4670,"Ġromut":4671,"Ġsreyal":4672,"nevnoc":4673,"Ġycna":4674,"Ġgnilebal":4675,"Ġlaicre":4676,"ĠSCDt":4677,"ĠIOR":4678,"SBP":4679,"liat":4680,"Ġtnetnoc":4681,"pmyl":4682,"fnoC":4683,"Ġtnemerusaem":4684,"Ġtlu":4685,"Ġdetalumits":4686,"lauq":4687,"temmysa":4688,"noziroh":4689,"ĠlareveS":4690,"hporta":4691,"Ġgnitroppus":4692,"Ġyteirav":4693,"ĠTM":4694,"Ġtesatad":4695,"Ġtneisnart":4696,"Ġyrosneso":4697,"Ġsnoitavresbo":4698,"Ġssecca":4699,"Ġsnoitatneserper":4700,"cirtem":4701,"Ġlaicremmoc":4702,"Ġtnesnoc":4703,"ĠereH":4704,"BG":4705,"Ġevisserped":4706,"Ġdeyolpme":4707,"Ġelgna":4708,"Ġ,)%":4709,"Ġlaretalispi":4710,"ĠCFPm":4711,"fas":4712,"FH":4713,"gyz":4714,"Ġ08":4715,"Ġeliforp":4716,"ciped":4717,"Ġnileym":4718,"refnoB":4719,"Ġnoitaz":4720,"Ġmotpmys":4721,"tiucric":4722,"cAN":4723,"Ġdeveihca":4724,"Ġdeticile":4725,"Ġyltnerruc":4726,"Ġ22":4727,"lm":4728,"Ġsezis":4729,"Ġwor":4730,"ceffE":4731,"Ġca":4732,"iuqe":4733,"Ġneerg":4734,"mac":4735,"cnitxe":4736,"kna":4737,"cnac":4738,"Ġdnuos":4739,"Ġnoitanimircsid":4740,"pah":4741,"Ġtnemega":4742,"sgnidnif":4743,"ĠrehtruF":4744,"semit":4745,"Ġstceffa":4746,"psoh":4747,"Ġladom":4748,"eulav":4749,"Ġyletaidemmi":4750,"ĠÂ°":4751,"Ġdeton":4752,"30":4753,"ici":4754,"snietorp":4755,"norrefnoB":4756,"Ġtnewrednu":4757,"PPA":4758,"yrbme":4759,"ulp":4760,"RN":4761,"ley":4762,"ulid":4763,"Ġsrehto":4764,"noM":4765,"etsni":4766,"Ġnaid":4767,"tupni":4768,"Ġytid":4769,"Ġlacigolocamrahp":4770,"Ġdeso":4771,"ercsid":4772,"tniop":4773,"raP":4774,"Ġcimono":4775,"ycneuqerf":4776,"ailgorcim":4777,"Ġecnelaverp":4778,"ceD":4779,"ĠeroM":4780,"Ġenik":4781,"Ġtiag":4782,"Ġcitpo":4783,"Ġlacigoloisyhportcele":4784,"005":4785,"rutsid":4786,"Ġdezilacol":4787,"Ġsrekramoib":4788,"ĠhcuS":4789,"otnorf":4790,"sci":4791,"vrenni":4792,"Ġnoitatpada":4793,"idnac":4794,"Ġnettirw":4795,"Ġevitpada":4796,"Ġtneve":4797,"tneC":4798,"Ġelcihev":4799,"htodne":4800,"raC":4801,"FSC":4802,"'t":4803,"napmocca":4804,"Ġevitpe":4805,"ĠlleC":4806,"Ġyllausu":4807,"Ġtneverp":4808,"69":4809,"Ġdehsaw":4810,"nomroh":4811,"kaT":4812,"Ġdekram":4813,"garf":4814,"simorp":4815,"Ġsmeti":4816,"Ġselucelom":4817,"baid":4818,"orciM":4819,"Ġ/":4820,"unam":4821,"ĠgniwolloF":4822,"Ġtpecxe":4823,"Ġenod":4824,"ĠtnemirepxE":4825,"pmetta":4826,"ĠsN":4827,"ope":4828,"decerp":4829,"Ġmrifnoc":4830,"58":4831,"Ġstcejbo":4832,"raloped":4833,"stluda":4834,"Ġseitis":4835,"CT":4836,"sserped":4837,"refer":4838,"ereh":4839,"Ġskcolb":4840,"eronummi":4841,"BM":4842,"llarap":4843,"stneme":4844,"lleC":4845,"Ġeettim":4846,"Ġevitcejbo":4847,"utcu":4848,"Ġhcraes":4849,"ĠDHDA":4850,"ide":4851,"Ġevitatneserper":4852,"HS":4853,"Ġelit":4854,"sretemarap":4855,"nee":4856,"Ġseussit":4857,"hcam":4858,"Ġdetcirtser":4859,"pircsed":4860,"lcs":4861,"Ġtnairav":4862,"ralop":4863,"Ġrotomirosnes":4864,"yca":4865,"nwonk":4866,"Ġseicne":4867,"crafni":4868,"ĠdetinU":4869,"Ġ).":4870,"Ġepahs":4871,"ĠTEP":4872,"Ġssalc":4873,"Ġhcaer":4874,"Ġemoc":4875,"Ġyler":4876,"nnac":4877,"Ġstolp":4878,"Ġdelli":4879,"Î³":4880,"Ġecils":4881,"Ġselpma":4882,"Ġybereht":4883,"Ġevruc":4884,"vaf":4885,"timsnartoruen":4886,"Ġdetna":4887,"Ġdezit":4888,"Ġylsuoenat":4889,"siseneg":4890,"sdohtem":4891,"Ġyhporta":4892,"iS":4893,"nulov":4894,"mow":4895,"Ġgnitaluger":4896,"65":4897,"suora":4898,"94":4899,"Ġnoitseuq":4900,"tneverp":4901,"netniam":4902,"ycordnedogilo":4903,"cov":4904,"Ġdeifissalc":4905,"LD":4906,"âĪ¼":4907,"Ġedarg":4908,"Ġ10":4909,"reserp":4910,"Ġdeyaled":4911,"Ġevisse":4912,"Ġlauqe":4913,"Ġsetu":4914,"Ġytiralimis":4915,"Ġsecudni":4916,"Ġralubitsev":4917,"Ġsserdda":4918,"namreG":4919,"Ġyrotaluger":4920,"Ġetutits":4921,"tcejbus":4922,"Ġtesbus":4923,"erocs":4924,"IH":4925,"nalpxe":4926,"utculf":4927,"orberec":4928,"Ġyrani":4929,"Ġnesohc":4930,"bup":4931,"Ġevitcejbus":4932,"Ġylevitisop":4933,"evis":4934,"nosrep":4935,"Ġegatlov":4936,"Ġnoisufrep":4937,"lletni":4938,"veirter":4939,"tinegorp":4940,"Ġemordnys":4941,"Ġron":4942,"retamatulg":4943,"drawer":4944,"nerrucer":4945,"Ġeralced":4946,"Ġgnidivorp":4947,"Ġyregrus":4948,"ĠtnemetatS":4949,"Ġlad":4950,"ona":4951,"Ġrefsnart":4952,"Ġespanys":4953,"ĠDM":4954,"Ġtibbar":4955,"yb":4956,"idutS":4957,"nosaer":4958,"ruS":4959,"Ġnoitcejorp":4960,"Ġseliforp":4961,"Ġtneiciffeoc":4962,"serocs":4963,"selba":4964,"rutrep":4965,"deni":4966,"elpmas":4967,"erac":4968,"annoitseuq":4969,"Ġua":4970,"irrab":4971,"dnuba":4972,"Ġygolohprom":4973,"Ġdenoitidnoc":4974,"Ġdevres":4975,"gnigami":4976,"cilbup":4977,"Ġgnidneped":4978,"Ġstnemtaert":4979,"Ġecnadrocca":4980,"Ġmro":4981,"Ġmot":4982,"Ġwon":4983,"hCA":4984,"Ġnoitarefilorp":4985,"ĠtcilfnoC":4986,"IBT":4987,"Ġdiova":4988,"ing":4989,"Ġlacinahcem":4990,"laV":4991,"Ġnoitareneged":4992,"nimorp":4993,"cilpmoc":4994,"ĠâĢĿ,":4995,"Ġtolp":4996,"Ġ54":4997,"Ġslexov":4998,"Ġgnitsixe":4999,"Ġdeniatnoc":5000,"SF":5001,"36":5002,"siht":5003,"yhed":5004,"tor":5005,"msi":5006,"OL":5007,"EG":5008,"Ġgnicuder":5009,"Ġylraelc":5010,"Ġmaertsnwod":5011,"Ġsedon":5012,"icerp":5013,"Ġecrof":5014,"Ġekatpu":5015,"Ġesohw":5016,"leR":5017,"loop":5018,"rexe":5019,"elcunys":5020,"Ġnoitaterpretni":5021,"Ġdecneirepxe":5022,"dnuob":5023,"ĠscihtE":5024,"ĠRM":5025,"opxe":5026,"ĠsCP":5027,"htuA":5028,"con":5029,"slaudividni":5030,"Ġlaer":5031,"selpmas":5032,"Ġsepytonehp":5033,"Ġsevit":5034,"ĠDB":5035,"rewop":5036,"Ġdaol":5037,"IM":5038,"Ġsenikotyc":5039,"libaher":5040,"Ġycneiciffe":5041,"Ġedom":5042,"enilesab":5043,"Ġdelpuoc":5044,"noitammalfni":5045,"Ġyrosnesotamos":5046,"tneitap":5047,"PF":5048,"vorpmi":5049,"Ġgnikips":5050,"Ġnoitcennoc":5051,"Ġgnilpmas":5052,"ĠSPL":5053,"Ġyllacigolo":5054,"ynamreG":5055,"sserpeditna":5056,"raB":5057,"ĠsCS":5058,"segnahc":5059,"Ġlatantsop":5060,"ge":5061,"ĠSU":5062,"Ġevitcaer":5063,"eda":5064,"Ġgnippam":5065,"Ġcisab":5066,"tin":5067,"cifingiS":5068,"hci":5069,"Ġenips":5070,"Ġylbissop":5071,"Ġsetalerroc":5072,"remiehzlA":5073,"dipar":5074,"Ġepytoneg":5075,"KM":5076,"Ġetulos":5077,"ĠsIOR":5078,"Ġgnikat":5079,"Ġsdoirep":5080,"wodniw":5081,"uS":5082,"Ġetavitca":5083,"Ġevaw":5084,"erC":5085,"lot":5086,"rofnier":5087,"27":5088,"Ġreve":5089,"oi":5090,"IRMf":5091,"Ġderolpxe":5092,"ĠerC":5093,"Ġnit":5094,"Ġyllaitnereffid":5095,"Ġnacs":5096,"Ġsedulcni":5097,"ĠrehtO":5098,"yC":5099,"Ġdnopser":5100,"ku":5101,"laC":5102,"Ġstnemriapmi":5103,"daorb":5104,"Ġytiv":5105,"nod":5106,"Ġcigretamatulg":5107,"Ġdekcolb":5108,"Ġdiulf":5109,"Ġlellarap":5110,"serutaef":5111,"enima":5112,"tA":5113,"rtsnoc":5114,"Ġsnoitacol":5115,"PE":5116,"Ġnoitalyhtem":5117,"oppo":5118,"htro":5119,"kci":5120,"Ġralopi":5121,"Ġecnahne":5122,"66":5123,"ĠtneceR":5124,"iravoc":5125,"ecaps":5126,"gitaf":5127,"evaw":5128,"erut":5129,"Ġcitsiretcarahc":5130,"Ġlartuen":5131,"Ġnoitadilav":5132,"Ġesnes":5133,"ĠemoS":5134,"Ġlatnoziroh":5135,"cseroulfo":5136,"htgnerts":5137,"Ġdeniatsus":5138,"segami":5139,"Ġesir":5140,"Ġyen":5141,"tsrif":5142,"95":5143,"Ġerusne":5144,"xip":5145,"lem":5146,"nerrucco":5147,"roop":5148,"rotpecer":5149,"Ġtneps":5150,"yeknom":5151,"essa":5152,"stniop":5153,"cejbuS":5154,"Ġnoi":5155,"Ġnoitcefni":5156,"Ġlaicaf":5157,"Ġyllaitne":5158,"libats":5159,"egnar":5160,"Ġssap":5161,"noitingoc":5162,"Ġderaperp":5163,"etorP":5164,"35":5165,"ssol":5166,"seiro":5167,"Ġlacigrus":5168,"Ġneves":5169,"Ġsta":5170,"Ġsisehtnys":5171,"AN":5172,"uat":5173,"Ġyarra":5174,"idi":5175,"Ġseigolo":5176,"inifed":5177,"ladom":5178,"emos":5179,"ĠnaeM":5180,"ĠmorF":5181,"ĠPPA":5182,"orelcs":5183,"tsefinam":5184,"ĠpuorG":5185,"Ġnoitacinummoc":5186,"Ġgnirotinom":5187,"Ġstib":5188,"MÎ¼":5189,"aM":5190,"Ġdene":5191,"Ġsdrawot":5192,"cudsnart":5193,"Ġgniwolla":5194,"tcafunam":5195,"Ġderahs":5196,"Ġsehc":5197,"Ġtsomla":5198,"dicu":5199,"renluv":5200,"RR":5201,"Ġevitceffa":5202,"Ġdednetxe":5203,"Ġcihport":5204,"Ġretla":5205,"gnitser":5206,"Ġniht":5207,"otpo":5208,"Ġslavretni":5209,"ifissalc":5210,"Ġdeurtsnoc":5211,"Ġspets":5212,"rota":5213,"Ġetisoppo":5214,"txetnoc":5215,"Ġ24":5216,"Ġnoitcarf":5217,"seht":5218,"artsnoc":5219,"Ġtnanimod":5220,"Ġhparg":5221,"miT":5222,"Ġssam":5223,"Ġsetyco":5224,"sumalaht":5225,"roproc":5226,"Ġyhpargo":5227,"ĠSD":5228,"hpargomed":5229,"Ġyltneuqerf":5230,"Ġtropsnart":5231,"Ġdenoitnem":5232,"Ġlartceps":5233,"ĠADMN":5234,"89":5235,"Ġsdleif":5236,"Ġhtnom":5237,"Ġyticolev":5238,"Ġyletelpmoc":5239,"refni":5240,"Ġ84":5241,"yeb":5242,"wols":5243,"Ġlufsseccus":5244,"Ġyfi":5245,"llarevO":5246,"Ġdetar":5247,"resni":5248,"yltneuqes":5249,"Ġpma":5250,"Ġsnoitubirtnoc":5251,"Ġraluc":5252,"cesnoc":5253,"ruoser":5254,"ĠlacinilC":5255,"ipo":5256,"Ġlacitnedi":5257,"Ġnur":5258,"orcus":5259,"Ġdesongaid":5260,"ĠIII":5261,"Ġsetirdned":5262,"Ġezila":5263,"Ġsisenegohtap":5264,"Ġror":5265,"mmocer":5266,"Ġnemow":5267,"Ġdetcefsnart":5268,"tesatad":5269,"Ġebircsed":5270,"ĠralimiS":5271,"neewteb":5272,"Ġylthgil":5273,"Ġnoitaived":5274,"xopyh":5275,"Ġsecuder":5276,"snamuh":5277,"Ġcigrenilohc":5278,"Ġdaetsni":5279,"Ġtsuj":5280,"many":5281,"ĠslaminA":5282,"Ġylevitcepser":5283,"Ġrettal":5284,"lehtodne":5285,"Ġniatniam":5286,"Ġgniretsulc":5287,"ĠSS":5288,"llu":5289,"VA":5290,"elbaT":5291,"Ġenile":5292,"mile":5293,"Ġnoitaxif":5294,"yleta":5295,"ria":5296,"Ġgnillortnoc":5297,"icossid":5298,"Ġtrats":5299,"grahcsid":5300,"ĠCS":5301,"Ġetatilicaf":5302,"selamef":5303,"Ġsekips":5304,"htgnel":5305,"nihtiw":5306,"Ġsniatnoc":5307,"rtS":5308,"noitisop":5309,"irT":5310,"ĠtsoM":5311,"ssap":5312,"Ġesla":5313,"Ġeton":5314,"lenap":5315,"ytivitcennoc":5316,"gA":5317,"nerda":5318,"ssA":5319,"idradnats":5320,"itluM":5321,"87":5322,"Ġmuidos":5323,"ĠCG":5324,"Ġrenni":5325,"Ġyltneuqesbus":5326,"Ġetarucca":5327,"Ġlaveirter":5328,"tocin":5329,"citna":5330,"Ġneercs":5331,"nhceT":5332,"PT":5333,"Ġyrtsimehc":5334,"noisel":5335,"itneicS":5336,"greb":5337,"Ġrotomocol":5338,"rez":5339,"Ġelbailer":5340,"OPA":5341,"Ġlariv":5342,"rutcafunam":5343,"Ġsuriv":5344,"Ġlanoitatupmoc":5345,"ĠCCA":5346,"rB":5347,"Ġlaog":5348,"ypareht":5349,"ahpla":5350,"cylg":5351,"hcrare":5352,"Ġnoitel":5353,"ĠSC":5354,"Ġeussi":5355,"irped":5356,"Ġtcart":5357,"Ġnitca":5358,"ĠseidutS":5359,"Ġgnimrofrep":5360,"sergga":5361,"ĠgnomA":5362,"pO":5363,"Ġredisnoc":5364,"yH":5365,"aep":5366,"noitces":5367,"tnes":5368,"Ġtcatni":5369,"Ġmsitua":5370,"Ġgninoitcnuf":5371,"ruter":5372,"Ġcitamuart":5373,"smsinahcem":5374,"Ġdnoyeb":5375,"tnemnorivne":5376,"darged":5377,"Ġdetarapes":5378,"ĠlanoitiddA":5379,"Ġ.)%":5380,"Ġtf":5381,"rim":5382,"Ġailg":5383,"Ġtcatnoc":5384,"cM":5385,"muH":5386,"nyS":5387,"Ġmn":5388,"kaew":5389,"mam":5390,"Ġ23":5391,"moh":5392,"Ġdetnemelpmi":5393,"Ġyllacinilc":5394,"lupmi":5395,"noitazila":5396,"HC":5397,"ĠDDM":5398,"rawer":5399,"eussit":5400,"Ġetulosba":5401,"Ġllun":5402,"dilos":5403,"Ġlaitnatsbus":5404,"85":5405,"Ġylgni":5406,"dnuf":5407,"serusaem":5408,"Ġytixelpmoc":5409,"Ġlenap":5410,"Ġyletarapes":5411,"Ġ09":5412,"SNC":5413,"Ġtnecseroulf":5414,"Ġfles":5415,"Ġgnitneserper":5416,"swollof":5417,"lyteca":5418,"ĠSBD":5419,"argim":5420,"Ġyrotaripser":5421,"gÎ¼":5422,"roN":5423,"ĠÎ·":5424,"raeP":5425,"uT":5426,"leks":5427,"ecnatsni":5428,"woleb":5429,"Ġylthgils":5430,"Ġdeviecrep":5431,"ĠâĪĴ":5432,"Ġmuminim":5433,"Ġylevitagen":5434,"nis":5435,"ifitnedi":5436,"OF":5437,"Ġyltsom":5438,"ulF":5439,"Ġretlif":5440,"ĠlaminA":5441,"lumitS":5442,"MM":5443,"RS":5444,"ateb":5445,"por":5446,"eerht":5447,"noitamrof":5448,"tnemelppus":5449,"ĠRE":5450,"Ġtsap":5451,"Ġnoitcnitxe":5452,"Ġhguo":5453,"Ġstcelfer":5454,"Ġdeinapmocca":5455,"Ġtinubus":5456,"Ġeuqinhcet":5457,"Ġsthg":5458,"dnet":5459,"gnolorp":5460,"Ġecnanetniam":5461,"Ġlailehtodne":5462,"cajda":5463,"roprocni":5464,"Ġelbi":5465,"Ġdereviled":5466,"PG":5467,"Ġraen":5468,"syawhtap":5469,"Ġdnuob":5470,"Ġlanoitpircsnart":5471,"hrro":5472,"ĠCI":5473,"wardhtiw":5474,"Ġrodo":5475,"lihpo":5476,"hcoc":5477,"Ġsliated":5478,"Ġnoitagitsevni":5479,"Ġnoitisnart":5480,"Ġrets":5481,"raM":5482,"Ġ82":5483,"80":5484,"Ġsmelborp":5485,"Ġ100":5486,"Ġ53":5487,"uqib":5488,"reveN":5489,"Ġcixot":5490,"yalp":5491,"rol":5492,"ĠnekaT":5493,"DOS":5494,"ĠlanoitcnuF":5495,"emrep":5496,"Ġecnatsiser":5497,"emulov":5498,"Ġsdi":5499,"ros":5500,"napxe":5501,"Ġdecneulfni":5502,"Ġsemo":5503,"Ġstesatad":5504,"erutcurts":5505,"nel":5506,"Ġcirtemo":5507,"Ġdesiv":5508,"mron":5509,"gifnoc":5510,"Ġnoisulcni":5511,"Ġgniyrav":5512,"Tm":5513,"icsoruen":5514,"GG":5515,"Ġezam":5516,"Ġlaicifeneb":5517,"Ġob":5518,"Ġenot":5519,"nerdlihc":5520,"Ġyltnednepedni":5521,"doolb":5522,"uB":5523,"txeN":5524,"Ġdnert":5525,"Ġnoiteled":5526,"ĠslleC":5527,"Ġ07":5528,"Ġnaidac":5529,"lexov":5530,"Ġdetibihni":5531,"Ġraf":5532,"xat":5533,"Ġcimetsys":5534,"Ġnoitanileym":5535,"Ġlacigolohprom":5536,"Ġnoitpursid":5537,"taM":5538,"ĠPRE":5539,"drager":5540,"noen":5541,"Ġdetadilav":5542,"nohp":5543,"ĠBBB":5544,"aporp":5545,"Ġretemaid":5546,"ĠÎ³":5547,"egral":5548,"tsoP":5549,"TU":5550,"Ġcitene":5551,"Ġyrav":5552,"Ġsuogyz":5553,"geR":5554,"Ġsevlovni":5555,"neda":5556,"nimal":5557,"Ġsetaluger":5558,"Ġly":5559,"Ġlanretam":5560,"Ġciport":5561,"sselehtreveN":5562,"Ġtuokconk":5563,"Ġtnemtiurcer":5564,"NO":5565,"nehT":5566,"gduj":5567,"Ġtifeneb":5568,"Ġevird":5569,"rofrep":5570,"Ġyram":5571,"Ġdessucsid":5572,"Ġcitpelipe":5573,"ivrus":5574,"noisiced":5575,"Ġlaretalo":5576,"SLA":5577,"roM":5578,"Ġdeliaf":5579,"Ġderetlif":5580,"Ġsecruos":5581,"Ġstrap":5582,"0001":5583,"Ġstif":5584,"ulGm":5585,"yspelipe":5586,"Ġgnicneuqes":5587,"Ġden":5588,"Îº":5589,"daets":5590,"gnid":5591,"Ġgnikcart":5592,"goT":5593,"Ġlamixam":5594,"SPI":5595,"Ġlonahte":5596,"gib":5597,"Ġsisotpopa":5598,"ĠylnO":5599,"redro":5600,"Ġsyawla":5601,"Ġevitucesnoc":5602,"ĠerutuF":5603,"Ġylesolc":5604,"Ġedistuo":5605,"noitarud":5606,"Ġevisnetxe":5607,"ĠaN":5608,"sC":5609,"dicule":5610,"ĠrohtuA":5611,"Ġsetubirtnoc":5612,"Ġnoitatnemges":5613,"Ġnoitarts":5614,"Ġyroeht":5615,"hgien":5616,"ĠAS":5617,"PDT":5618,"ĠlanoitaN":5619,"kcap":5620,"iravit":5621,"let":5622,"Ġralopib":5623,"Ġenoz":5624,"salpotyc":5625,"Ġeslaf":5626,"ulcco":5627,"Ġkrowemarf":5628,"mucod":5629,"slennahc":5630,"Ġsisenegoruen":5631,"Ġgnira":5632,"Ġdettim":5633,"Ġsnoitatimil":5634,"Ġecnedicni":5635,"79":5636,"brutsid":5637,"Ġticifed":5638,"Ġecitcarp":5639,"Ġtnemeerga":5640,"eW":5641,"Ġlatsid":5642,"oma":5643,"Ġamo":5644,"Ġgnitrats":5645,"Ġyllaitrap":5646,"nretni":5647,"ais":5648,"Ġdetcelfer":5649,"WS":5650,"dleif":5651,"Ġytirgetni":5652,"lliks":5653,"Ġnoitamitse":5654,"gal":5655,"Ġsgnitar":5656,"crofnier":5657,"keew":5658,"ofnoc":5659,"pecca":5660,"Ġseda":5661,"ehw":5662,"mc":5663,"semoctuo":5664,"Ġdengissa":5665,"dilosnoc":5666,"yaw":5667,"Ġsruoh":5668,"Ġtnenimorp":5669,"Ġssene":5670,"Ġtneidarg":5671,"Ġmet":5672,"Ġrennam":5673,"iht":5674,"Ġtibihni":5675,"onom":5676,"ĠFF":5677,"hcrareih":5678,"skeew":5679,"otsihonummi":5680,"Ġeniacoc":5681,"Ġtsinogatna":5682,"Ġlasuac":5683,"snoisses":5684,"Ġytienegoreteh":5685,"Ġyldipar":5686,"70":5687,"Ġderrefer":5688,"aladgyma":5689,"ĠMER":5690,"ĠGME":5691,"coen":5692,"edis":5693,"Ġcitametsys":5694,"cehc":5695,"Ġelella":5696,"Ġesicerp":5697,"Ġsulp":5698,"yregrus":5699,"yticitsalp":5700,"ruP":5701,"Ġlacitrev":5702,"tihW":5703,"14":5704,"Ġevitcetorporuen":5705,"selbairav":5706,"noitcerid":5707,"Ġecnerrucco":5708,"tsalb":5709,"ĠFG":5710,"Ġralucirtnev":5711,"AT":5712,"tnapicitrap":5713,"ĠydutS":5714,"Ġytilibats":5715,"Ġsloot":5716,"ĠTS":5717,"Ġgnitceffa":5718,"Ġevres":5719,"hcatta":5720,"ĠPB":5721,"YS":5722,"uqibu":5723,"Ġsnoitubirtsid":5724,"ainerhpozihcs":5725,"Ġgnirrucco":5726,"Ġnegyxo":5727,"Ġdetcejbus":5728,"Ġsdneped":5729,"Ġcitame":5730,"roW":5731,"Ġevresbo":5732,"Ġselcsum":5733,"slangis":5734,"Ġ62":5735,"Ġdetaunetta":5736,"dees":5737,"tinni":5738,"Ġniaga":5739,"ĠPF":5740,"Ġeurt":5741,"Ġdoom":5742,"ĠPI":5743,"Ġsnoitcejni":5744,"iceps":5745,"WG":5746,"Ġgnignar":5747,"sroivaheb":5748,"Ġnaidacric":5749,"retta":5750,"Ġgnivom":5751,"Ġtraeh":5752,"Ġtnemhcirne":5753,"Ġsal":5754,"Ġsp":5755,"Ġesoporp":5756,"ylbatoN":5757,"Ġezylana":5758,"seigolo":5759,"Ġlacitpo":5760,"ylsuo":5761,"Ġyltnetsisnoc":5762,"39":5763,"cartnoc":5764,"isae":5765,"Ġmroftalp":5766,"tet":5767,"cudorper":5768,"niamod":5769,"Ġylsuoenatlumis":5770,"HD":5771,"Ġlautca":5772,"ibromoc":5773,"Ġyllamron":5774,"Ġredneg":5775,"elcitra":5776,"Ġtolb":5777,"Ġgnitartsnomed":5778,"eroeht":5779,"Ġgnitar":5780,"iF":5781,"tnemriapmi":5782,"suaG":5783,"Ġscitsitats":5784,"Ġdetaerc":5785,"Ġlanoitnevnoc":5786,"ĠAC":5787,"ngorp":5788,"sdrow":5789,"cafitra":5790,"Ġnoisserpxerevo":5791,"ĠĠĠĊ":5792,"Ġretsaf":5793,"rucerp":5794,"madnuf":5795,"poda":5796,"Ġdipil":5797,"Ġecno":5798,"ocylg":5799,"xelA":5800,"Ġgniklaw":5801,"Ġsnacs":5802,"Ġyticixot":5803,"XC":5804,"brutrep":5805,"teM":5806,"uG":5807,"roccA":5808,"ipe":5809,"ĠĠĠĠĊ":5810,"noissim":5811,"enot":5812,"ĠPTL":5813,"Ġepocsorcim":5814,"setycortsa":5815,"Ġlapicnirp":5816,"Ġsezi":5817,"Ġailgnag":5818,"ĠgnidroccA":5819,"rihT":5820,"lupinam":5821,"Ġeviecer":5822,"sirapmoC":5823,"Ġetag":5824,"Ġhtdiw":5825,"Ġnrut":5826,"stneve":5827,"dlA":5828,"Ġenir":5829,"Ġenilno":5830,"tcudnoc":5831,"gin":5832,"Ġetycortsa":5833,"Ġnoitacifitnauq":5834,"88":5835,"noisu":5836,"sP":5837,"Ġnoitcnuj":5838,"Ġcigolo":5839,"Ġdeirav":5840,"ufir":5841,"xordyh":5842,"Ġtcaxe":5843,"suelcun":5844,"Ġeveihca":5845,"Ġsnoitnevretni":5846,"Ġtneiciffe":5847,"Ġeil":5848,"ĠNMD":5849,"Ġnoitacidem":5850,"ĠtseretnI":5851,"Ġom":5852,"Ġknar":5853,"Ġsdlohserht":5854,"senil":5855,"26":5856,"Ġregnuoy":5857,"golana":5858,"Ġderots":5859,"sap":5860,"Ġwar":5861,"Ġhctam":5862,"ksir":5863,"Ġ***":5864,"recnu":5865,"Ġ57":5866,"nwonknu":5867,"artxe":5868,"ĠPTA":5869,"ingoC":5870,"elacs":5871,"PTA":5872,"Ġtnerappa":5873,"ĠlacideM":5874,"lap":5875,"Ġevisavni":5876,"Ġemot":5877,"Ġonima":5878,"Ġtnecajda":5879,"OK":5880,"SPL":5881,"Ġmelborp":5882,"cilpxe":5883,"Ġnailam":5884,"psoH":5885,"noitom":5886,"suoca":5887,"EF":5888,"gn":5889,"Ġgninnigeb":5890,"Ġ27":5891,"VC":5892,"Ġlaruo":5893,"rtsid":5894,"ĠDC":5895,"Ġesrever":5896,"htluda":5897,"Ġnoitargim":5898,"uot":5899,"Ġekatni":5900,"Ġgnippalrevo":5901,"Ġxel":5902,"deeps":5903,"hrromeh":5904,"arT":5905,"yhedla":5906,"bO":5907,"Ġsrehcraeser":5908,"Ġgnisimorp":5909,"devresbo":5910,"utit":5911,"Ġsecneuqesnoc":5912,"hZ":5913,"dnilb":5914,"tl":5915,"isiv":5916,"Ġnrob":5917,"Ġtneicifed":5918,"sisehtopyh":5919,"idart":5920,"Ġdezimodnar":5921,"Ġgninut":5922,"relot":5923,"ĠPAFG":5924,"BI":5925,"Ġtneurgnoc":5926,"afed":5927,"Ġesrevda":5928,"Ġetalerroc":5929,"Ġthginrevo":5930,"ĠMG":5931,"Ġyreviled":5932,"ĠeettimmoC":5933,"Ġecnerehoc":5934,"Ġmeti":5935,"ĠderapmoC":5936,"muc":5937,"ĠnoitacifitnauQ":5938,"Ġtsrub":5939,"erged":5940,"Ġyhparg":5941,"Ġstroppus":5942,"noitcejni":5943,"/+":5944,"Ġcirtemarap":5945,"ujnoc":5946,"Ġgniredisnoc":5947,"ahpme":5948,"Ġtnemecnahne":5949,"murtsni":5950,"ĠinorrefnoB":5951,"ylfe":5952,"Ġcif":5953,"ues":5954,"repap":5955,"Ġhcir":5956,"ĠsCG":5957,"ytilib":5958,"Ġ72":5959,"Ġlacofnoc":5960,"detcepxe":5961,"erG":5962,"ĠtnetsisnoC":5963,"Ġscirtem":5964,"Ġerutpac":5965,"Ġlacigolohcysporuen":5966,"Ġsecneulfni":5967,"nepo":5968,"ĠHT":5969,"Ġeziretcarahc":5970,"Ġgnitca":5971,"sdohteM":5972,"ĠES":5973,"nnaM":5974,"hgiH":5975,"noitacif":5976,"Ġsnoitseuq":5977,"Ġstnemele":5978,"tiuqibu":5979,"Ġsecart":5980,"Ġ.%":5981,"Ġgnio":5982,"ĠsG":5983,"96":5984,"tnemevom":5985,"Ġgnirusaem":5986,"VM":5987,"sreb":5988,"picitna":5989,"Ġdegnolorp":5990,"hsilbatse":5991,"eca":5992,"noitibihni":5993,"PLD":5994,"rotom":5995,"tinnit":5996,"Ġhtped":5997,"Ġrevoc":5998,"Ġfe":5999,"Ġyfitnauq":6000,"emoc":6001,"cicon":6002,"enu":6003,"Ġslanimret":6004,"Ġdehcaer":6005,"Ġesrevid":6006,"nnalp":6007,"Ġenin":6008,"lubut":6009,"retsulc":6010,"ahc":6011,"opot":6012,"Ġrew":6013,"Ġllacer":6014,"lati":6015,"ĠMES":6016,"Ġnoitcelloc":6017,"dezi":6018,"aP":6019,"Ġgnitseretni":6020,"Ġgnitagitsevni":6021,"Ġseti":6022,"Ġerauqs":6023,"ortS":6024,"ylfeirB":6025,"Ġtnedive":6026,"Ġdereffid":6027,"Ġdetargetni":6028,"Ġ32":6029,"ĠtseT":6030,"Ġetadidnac":6031,"Ġrh":6032,"Ġnoitaticxe":6033,"Ġyrotarobal":6034,"mn":6035,"Ġralucsavo":6036,"yaB":6037,"Ġnailammam":6038,"Ġ63":6039,"Ġmottob":6040,"LM":6041,"uca":6042,"Ġelbuod":6043,"Ġenikotyc":6044,"Ġevitatup":6045,"FM":6046,"Ġstneiciffeoc":6047,"Ġoediv":6048,"ĠlÎ¼":6049,"Ġdetcefni":6050,"llah":6051,"Ġcinoyrbme":6052,"taerg":6053,"reV":6054,"ĠOC":6055,"Ġdellif":6056,"irprus":6057,"Ġtnelaviuqe":6058,"csnart":6059,"Ġnis":6060,"etis":6061,"lediug":6062,"Ġylevitceles":6063,"Ġtnetsisrep":6064,"Ġsdnab":6065,"tub":6066,"ĠhtlaeH":6067,"Ġciteht":6068,"elu":6069,"Ġrebmahc":6070,"gT":6071,"Ġretrohs":6072,"onummI":6073,"etad":6074,"Ġdenrael":6075,"dnuorg":6076,"Ġgnikcolb":6077,"Ġdezidradnats":6078,"dt":6079,"raelcnu":6080,"Ġgniyfitnedi":6081,"Ġderrefsnart":6082,"Ġairdnohcotim":6083,"Ġdetalugerpu":6084,"FF":6085,"Ġraluger":6086,"setats":6087,"ngerp":6088,"idua":6089,"DL":6090,"iuq":6091,"raps":6092,"ufirtnec":6093,"saercnI":6094,"Ġnoitatilibaher":6095,"erf":6096,"euc":6097,"77":6098,"Ġdettolp":6099,"TAM":6100,"Ġtnedor":6101,"Ġcirehpsimeh":6102,"Ġsesod":6103,"debme":6104,"htaed":6105,"ecneH":6106,"esod":6107,"nird":6108,"Ġytilibailer":6109,"arbez":6110,"liM":6111,"Ġsthgiew":6112,"EA":6113,"esion":6114,"Ġsevruc":6115,"FS":6116,"Ġniks":6117,"Ġlamoso":6118,"Ġuo":6119,"Ġmetsniarb":6120,"Ġlainarcartni":6121,"irbif":6122,"teD":6123,"Ġlasrev":6124,"Ġsepytbus":6125,"Ġtcudorp":6126,"Ġtsinoga":6127,"srab":6128,"seiceps":6129,"Ġnielcunys":6130,"yllaci":6131,"Ġyltnanimoderp":6132,"Ġraluco":6133,"Ġnu":6134,"ilekil":6135,"ĠRI":6136,"tebaid":6137,"Ġdereggirt":6138,"Ġrailimaf":6139,"rO":6140,"Ġthgilhgih":6141,"amu":6142,"vres":6143,"Ġkram":6144,"45":6145,"Ġnoisuf":6146,"Ġmetrom":6147,"Ġyllaitini":6148,"xedni":6149,"Ġtcaretni":6150,"Ġobecalp":6151,"ĠnamuH":6152,"emo":6153,"Ġdezitehtsena":6154,"Ġsuoremun":6155,"onorp":6156,"Ġtcejorp":6157,"erofereht":6158,"snosirapmoc":6159,"rehni":6160,"aD":6161,"Ġypocsorcim":6162,"Ġniatnoc":6163,"nilb":6164,"Ġgniviecer":6165,"tibro":6166,"Ġsy":6167,"hcope":6168,"paler":6169,"al":6170,"Ġevlovni":6171,"PAD":6172,"ĠrehsiF":6173,"Ġyrot":6174,"Ġsrotibihni":6175,"Ġcimany":6176,"irpmoc":6177,"Ġytini":6178,"Ġyllaut":6179,"ĠEG":6180,"Ġdetalumis":6181,"mim":6182,"yassa":6183,"Ġsdeen":6184,"ACI":6185,"irbyh":6186,"mottob":6187,"nips":6188,"Ġesorcus":6189,"Ġgninnacs":6190,"psac":6191,"Ġgnitsal":6192,"redle":6193,"aR":6194,"Ġlasuora":6195,"Ġsnoitairav":6196,"sespanys":6197,"seidob":6198,"noitcaretni":6199,"Ġslocotorp":6200,"Ġnoitpmusnoc":6201,"Ġgniogno":6202,"Ġ0001":6203,"67":6204,"gnilangis":6205,"utibah":6206,"Ġecnecseroulfo":6207,"Ġrekramoib":6208,"ĠnaissuaG":6209,"Ġsegahporcam":6210,"Ġresal":6211,"but":6212,"Ġgnite":6213,"niht":6214,"Ġyrogetac":6215,"Ġegatnavda":6216,"uesp":6217,"ĠemiT":6218,"tsisrep":6219,"Ġstnatum":6220,"rtxe":6221,"NFI":6222,"erehpsimeh":6223,"reneG":6224,"gniga":6225,"68":6226,"Ġlanosrep":6227,"DB":6228,"toib":6229,"ĠVI":6230,"eu":6231,"noN":6232,"ehs":6233,"Ġemyzne":6234,"yht":6235,"ttes":6236,"Ġnoitarenegedoruen":6237,"Ġriah":6238,"60":6239,"erutarepmet":6240,"ool":6241,"caxe":6242,"etS":6243,"Ġreirrab":6244,"Ġpmalc":6245,"Ġselacs":6246,"Ġderujni":6247,"MN":6248,"Ġetaidemretni":6249,"ĠGEM":6250,"Ġnoitarutam":6251,"Ġcipyt":6252,"cidda":6253,"Ġretomorp":6254,"Ġtnemel":6255,"ĠlaroivaheB":6256,"lihposor":6257,"RLT":6258,"erusopxe":6259,"peR":6260,"elloc":6261,"cartbus":6262,"olc":6263,"ops":6264,"IR":6265,"negomoh":6266,"htooms":6267,"Ġyrevocsid":6268,"matup":6269,"Ġevissap":6270,"hpromylop":6271,"Ġenifed":6272,"nimile":6273,"ihc":6274,"Ġxo":6275,"ACM":6276,"Ġetairavit":6277,"Ġsetomorp":6278,"Ġseye":6279,"stnemevom":6280,"Ġseira":6281,"Ġlaruoivaheb":6282,"ĠlatnemirepxE":6283,"tsuc":6284,"rul":6285,"Ġtnemetats":6286,"Ġytilibitpecsus":6287,"cifitneicS":6288,"003":6289,"Ġaedi":6290,"wsna":6291,"Ġyretra":6292,"ĠâĢ²":6293,"Ġdetne":6294,"EC":6295,"saT":6296,"cnup":6297,"nots":6298,"Ġdeliat":6299,"Ġgnissessa":6300,"HP":6301,"Ġ)+":6302,"secnereffid":6303,"Ġsthgisni":6304,"Ġlaretali":6305,"rennam":6306,"ĠeerhT":6307,"Ġetatned":6308,"mutairts":6309,"Ġgnineercs":6310,"Ġytluciffid":6311,"Ġytivis":6312,"Mm":6313,"retfa":6314,"ssi":6315,"Ġhtap":6316,"ICM":6317,"nimid":6318,"Ġetapicitrap":6319,"nimul":6320,"Ġnilusni":6321,"uH":6322,"ortcelE":6323,"Ġsemoso":6324,"Ġnoissi":6325,"suoicsnoc":6326,"cnuonorp":6327,"egatlov":6328,"netrepyh":6329,"etrev":6330,"25":6331,"Ġetalp":6332,"Ġgnitcelfer":6333,"oerets":6334,"gnitset":6335,"Ġnoitanimaxe":6336,"Ġelbati":6337,"Ġhsilbatse":6338,"lihposorD":6339,"bmessa":6340,"Ġedon":6341,"Ġtsegral":6342,"Ġlatnemadnuf":6343,"egdelwonk":6344,"sixa":6345,"icoS":6346,"ĠstcejbuS":6347,"omorhc":6348,"Ġecnedneped":6349,"ĠATV":6350,"esuom":6351,"noitcnufsyd":6352,"xA":6353,"Ġmargo":6354,"Ġcida":6355,"noitis":6356,"Ġyllanoitcnuf":6357,"oR":6358,"itneics":6359,"saB":6360,"Ġylbaborp":6361,"Ġsedi":6362,"Ġdetam":6363,"olf":6364,"Ġraelcnu":6365,"Ġcibmil":6366,"Ġtpecnoc":6367,"selam":6368,"uqeda":6369,"foruen":6370,"revid":6371,"Ġ83":6372,"Ġnoitadarged":6373,"<(":6374,"pE":6375,"gnahC":6376,"Ġtnega":6377,"Ġrepap":6378,"detcerroc":6379,"vo":6380,"cinummoc":6381,"Ġseilf":6382,"Ġnoitaraperp":6383,"Ġecnaveler":6384,"ĠledoM":6385,"Ġemarf":6386,"oslA":6387,"sihw":6388,"ubirtnoC":6389,"Ġmees":6390,"Ġ004":6391,"Ġerar":6392,"ecneuqes":6393,"RF":6394,"Ġ56":6395,"gipe":6396,"ĠnoisulcnoC":6397,"Ġkoot":6398,"Ġelitcat":6399,"Ġsseldrager":6400,"lifni":6401,"Ġsisorelcs":6402,"ĠlortnoC":6403,"ivan":6404,"Ġdeuc":6405,"loiv":6406,"pseR":6407,"icossA":6408,"Ġdeterpretni":6409,"trom":6410,"Ġcidosipe":6411,"nerawa":6412,"gaid":6413,"Ġdetalyrohpsohp":6414,"roF":6415,"Ġshparg":6416,"raH":6417,"kcaB":6418,"utitsnI":6419,"ĠyentihW":6420,"laG":6421,"Ġcihparg":6422,"Ġlaitap":6423,"Ġnoitcetorp":6424,"rerutcafunam":6425,"eye":6426,"Ġsnoitacif":6427,"Ġdezilitu":6428,"rotcejart":6429,"97":6430,"Ġnori":6431,"Ġgnimrof":6432,"Ġdaorb":6433,"lpsnart":6434,"tluser":6435,"Ġsisotyco":6436,"Ġelunarg":6437,"Ġladuac":6438,"snoitalupop":6439,"rtsor":6440,"Ġnoitalugerpu":6441,"finu":6442,"elbuod":6443,"Ġcitsuoca":6444,"Ġevisnopser":6445,"Ġskaep":6446,"redneg":6447,"Ġevisneherpmoc":6448,"Ġsedis":6449,"Ġstnemges":6450,"Ġesae":6451,"Ġninotores":6452,"dauq":6453,"orbif":6454,"secna":6455,"setatS":6456,"Ġrehti":6457,"Ġalusni":6458,"Ġyllufsseccus":6459,"neb":6460,"ĠâĢĿ.":6461,"oruE":6462,"rehte":6463,"ĠevitingoC":6464,"snrettap":6465,"ruof":6466,"corP":6467,"ĠGgI":6468,"Ġrewef":6469,"Ġlaminim":6470,"Ġdneped":6471,"Ġnoitanalpxe":6472,"Ġsup":6473,"Ġycneicifed":6474,"Ġâ":6475,"Ġgninimaxe":6476,"Ġdecnavda":6477,"Ġgnilla":6478,"hsaw":6479,"Ġgnizila":6480,"Ġseditpep":6481,"Ġssucsid":6482,"Ġsnoitisop":6483,"#&;":6484,"Ġdesopmoc":6485,"tamorhc":6486,"egats":6487,"Ġytilibasid":6488,"Ġrennacs":6489,"Ġgnidnopser":6490,"Ġseva":6491,"Ġnoitnet":6492,"ud":6493,"egnahc":6494,"erawtfos":6495,"lip":6496,"Ġnoitalumis":6497,"Ġdednet":6498,"muN":6499,"Ġtluafed":6500,"ĠICS":6501,"Ġkna":6502,"Ġdetubirtta":6503,"DN":6504,"noitacol":6505,"Ġylralimis":6506,"Ġyhtapo":6507,"kuel":6508,"Ġtsil":6509,"orf":6510,"Ġtnerrucer":6511,"Ġtpe":6512,"pyT":6513,"Ġstnafni":6514,"ĠomrehT":6515,"oloc":6516,"Ġdoohilekil":6517,"Ġsnoitavitca":6518,"ortivnI":6519,"grevnoc":6520,"Ġdedocne":6521,"egamad":6522,"Ġsngis":6523,"Ġetalpmet":6524,"Ġnoitammalfnioruen":6525,"Ġgnidnuorrus":6526,"Ġsnoitciderp":6527,"Ġssorc":6528,"Ġ59":6529,"Ġreggirt":6530,"Ġcinot":6531,"ĠLm":6532,"noisulcnoc":6533,"78":6534,"Ġnoitce":6535,"SU":6536,"Ġcaidrac":6537,"psffo":6538,"ĠetutitsnI":6539,"=;":6540,"Vm":6541,"rofosi":6542,"Ġcitats":6543,"âĢľ(":6544,"Ġliat":6545,"Ġgnitsisnoc":6546,"Ġdetcurtsni":6547,"Ġralucsum":6548,"Ġorez":6549,"utitsnoc":6550,"diolyma":6551,"Ġegnellahc":6552,"bannac":6553,"Ġnedrub":6554,"Ġ;%":6555,"revocer":6556,"Ġecnadiova":6557,"Ġdecudortni":6558,"Ġstcart":6559,"Ġstsisnoc":6560,"ĠnoisserpxE":6561,"Ġhsiugnitsid":6562,"selc":6563,"Ġseirogetac":6564,"SL":6565,"Ġnoitabucni":6566,"ĊĊĠ":6567,"Ġlacitro":6568,"Ġsenips":6569,"ropsnart":6570,"CCA":6571,"ilo":6572,"Ġgnired":6573,"Ġpool":6574,"toned":6575,"Ġeruliaf":6576,"opil":6577,"Ġ\"":6578,"Ġstnecseloda":6579,"Ġytilibaliava":6580,"Ġerutcetihcra":6581,"Ġrettimsnartoruen":6582,"Ġsiti":6583,"demrofrep":6584,"dootsrednu":6585,"Ġsmia":6586,"KSG":6587,"Ġdoohdlihc":6588,"serutcurts":6589,"Ġrei":6590,"Ġecived":6591,"Ġlebal":6592,"#&=;":6593,"Ġtneuqerf":6594,"dlohserht":6595,"Ġderreferp":6596,"Ġdecnuonorp":6597,"rehtegoT":6598,"VE":6599,"15":6600,"Ġsesahp":6601,"Ġstnemevorpmi":6602,"sediw":6603,"KR":6604,"NulG":6605,"ised":6606,"Ġyel":6607,"ppah":6608,"erpsediw":6609,"Ġedixo":6610,"lluf":6611,"Ġtpek":6612,"FA":6613,"nih":6614,"mulleberec":6615,"Ġaniter":6616,"lpi":6617,"gir":6618,"kA":6619,"Ġare":6620,"ĠalihposorD":6621,"mehcs":6622,"amrof":6623,"Ġtnemges":6624,"iws":6625,"Ġtceridni":6626,"Ġyrotallicso":6627,"dnih":6628,"Ġsdne":6629,"Ġylirassecen":6630,"ylno":6631,"ĠDSTP":6632,"emoctuo":6633,"AND":6634,"retcab":6635,"Ġstnega":6636,"Ġsuoena":6637,"stnenopmoc":6638,"ygolohtap":6639,"Ġelbane":6640,"Ġpag":6641,"Ġdehc":6642,"siar":6643,"Ġnoitatna":6644,"Ġyhw":6645,"temmys":6646,"ssel":6647,"ĠuaT":6648,"iM":6649,"Ġgnitavitca":6650,"Ġdesaeler":6651,"tas":6652,"Ġstinubus":6653,"naM":6654,"49":6655,"Ġlanoitcerid":6656,"sn":6657,"Ġnnam":6658,"apm":6659,"GL":6660,"Ġgninnur":6661,"setis":6662,"euq":6663,"Ġ#####":6664,"picerp":6665,"Ġretupmoc":6666,"Ġdetamotua":6667,"srehto":6668,"ysP":6669,"ralc":6670,"cilps":6671,"Ġtnereffa":6672,"PMM":6673,"hcirdlA":6674,"Ġsecitroc":6675,"meM":6676,"Ġgnitubirtnoc":6677,"Ġnoitalsnart":6678,"oJ":6679,"vitcA":6680,"QI":6681,"mertxe":6682,"cas":6683,"MC":6684,"usiV":6685,"Ġrecnac":6686,"ĠsPNS":6687,"niatrecnu":6688,"Ġgnivird":6689,"airetirc":6690,"ĠsnoitubirtnoC":6691,"seci":6692,"gnir":6693,"eF":6694,"cartta":6695,"negyxo":6696,"-âĢ²":6697,"Ġlatef":6698,"refretni":6699,"Ġdloc":6700,"Ġteid":6701,"hcraes":6702,"kni":6703,"Ġsrev":6704,"ssessA":6705,"Ġepols":6706,"LT":6707,"dev":6708,"Ġthgisni":6709,"Ġsnoitacilpmi":6710,"Ġdegnar":6711,"Ġlacissalc":6712,"retaw":6713,"Ġsetanidrooc":6714,"ripme":6715,"orne":6716,"udividnI":6717,"Ġ051":6718,"Ġgm":6719,"Ġnwodkconk":6720,"Ġdezilareneg":6721,"Ġgniylppa":6722,"Ġsih":6723,"remA":6724,"otpanys":6725,"Ġylevitceffe":6726,"retselohc":6727,"paJ":6728,"etal":6729,"Ġrehtien":6730,"LF":6731,"Ġtnioj":6732,"Ġnwonknu":6733,"rbmem":6734,"rtnec":6735,"Ġgnitomorp":6736,"tsetni":6737,"Ġnoitaitini":6738,"ĠnosirapmoC":6739,"igeR":6740,"seruzies":6741,"eriuqer":6742,"ĠVP":6743,"Ġtaeper":6744,"rahC":6745,"Ġcihpargomed":6746,"lI":6747,"Ġsekam":6748,"oF":6749,"aitnemed":6750,"Ġsuonev":6751,"eZ":6752,"cius":6753,"Ġsetartsnomed":6754,"Ġygahpotua":6755,"MER":6756,"yrammus":6757,"ycarucca":6758,"noitat":6759,"Ġnoitacude":6760,"Ġgnitareneg":6761,"Ġnoital":6762,"Ġdedleiy":6763,"Ġsyeknom":6764,"rrehC":6765,"rN":6766,"Ġyllaitaps":6767,"Ġsoitar":6768,"Ġevititeper":6769,"noitubirtsid":6770,"XO":6771,"Ġetaerc":6772,"Ġytitnedi":6773,"Ġpihs":6774,"ebo":6775,"ĠVm":6776,"Ġtimil":6777,"Ġralugna":6778,"Ġelif":6779,"Ġseipareht":6780,"Ġyratnemelppus":6781,"taro":6782,"Ġpil":6783,"Ġytidi":6784,"Ġsda":6785,"dei":6786,"lucric":6787,"raef":6788,"dlrow":6789,"Ġdaerpsediw":6790,"III":6791,"egami":6792,"Ġdetnuom":6793,"DSP":6794,"nevis":6795,"Ġniahc":6796,"edutilpma":6797,"Ġgnidoced":6798,"Ġohce":6799,"ylesrev":6800,"Ġlatanoen":6801,"lamina":6802,"Ġnoitagergga":6803,"ĠGD":6804,"Ġsuou":6805,"bircsed":6806,"Ġaidem":6807,"nerruC":6808,"enarbmem":6809,"RCP":6810,"tip":6811,"elcihev":6812,"lpitlum":6813,"38":6814,"cessid":6815,"500":6816,"Ġenihcam":6817,"Ġelur":6818,"Ã©":6819,"itepmoc":6820,"Ġgnihcaer":6821,"noisiv":6822,"37":6823,"xoc":6824,"sgnidrocer":6825,"dnub":6826,"evrus":6827,"Ġyrat":6828,"Ġsdnopserroc":6829,"Ġytilatrom":6830,"Ġain":6831,"lco":6832,"LS":6833,"rolhc":6834,"detaeper":6835,"caF":6836,"Ġgnisuac":6837,"Ġdetagujnoc":6838,"hoc":6839,"Ġeniru":6840,"mes":6841,"Ġnic":6842,"Ġsuproc":6843,"ĠITD":6844,"Ġelbapac":6845,"Ġkaew":6846,"Ġrel":6847,"esiw":6848,"Ġgnimm":6849,"Ġlavomer":6850,"tiga":6851,"Ġdemussa":6852,"Ġdezingocer":6853,"Ġetaidemmi":6854,"Ġlamixorp":6855,"Ġeniargim":6856,"Ġdeed":6857,"NE":6858,"Ġerugif":6859,"Ġgnitroper":6860,"dnuof":6861,"laudividni":6862,"Ġedoc":6863,"itapmoc":6864,"taerT":6865,"RhC":6866,"ĠcAN":6867,"gaelloc":6868,"rops":6869,"reyal":6870,"200":6871,"Ġtra":6872,"rtlifni":6873,"Ġygoloisyhpohtap":6874,"Ġyrtem":6875,"jnik":6876,"csaf":6877,"nalp":6878,"PRL":6879,"Ġdlrow":6880,"lareneg":6881,"tnemelpmoc":6882,"Ġqes":6883,"erudecorp":6884,"Ġcitehtapm":6885,"Ġlaciteroeht":6886,"Ġnem":6887,"rrehCm":6888,"hsilbup":6889,"::":6890,"sticifed":6891,"xC":6892,"MH":6893,"sahp":6894,"oG":6895,"Ġdesserppus":6896,"Ġcisum":6897,"Ġnys":6898,"refsnart":6899,"Ġmargorp":6900,"-;":6901,"stinu":6902,"Ġecnerefretni":6903,"ĠynaM":6904,"peed":6905,"abI":6906,"rG":6907,"Ġstiart":6908,"16":6909,"Ġmar":6910,"Ġevitalu":6911,"Ġdengila":6912,"Ġtnetop":6913,"Ġrem":6914,"tsiger":6915,"tseT":6916,"jnikruP":6917,"Ġsreirrac":6918,"Ġhsifarbez":6919,"xO":6920,"sisongaid":6921,"Ġytivitcaeronummi":6922,"Ġgnu":6923,"ĠgnigamI":6924,"trohoc":6925,"itom":6926,"Ġlautxetnoc":6927,"bmi":6928,"xocliW":6929,"ĠsI":6930,"Ġ,-":6931,"Ġcirtem":6932,"Ġregnif":6933,"Ġenimatek":6934,"lucsav":6935,"Ġlanoitces":6936,"Ġelo":6937,"Ġsessalc":6938,"Ġsalta":6939,"Ġstcefed":6940,"ĠeuD":6941,"Ġeilrednu":6942,"tamo":6943,"Ġdetrats":6944,"mub":6945,"Ġesabatad":6946,"vA":6947,"âĪĴ(":6948,"yltneceR":6949,"KU":6950,"Ġderiapnu":6951,"Ġdnopserroc":6952,"Ġar":6953,"ĠSMTr":6954,"ĠCL":6955,"tolb":6956,"isne":6957,"28":6958,"loM":6959,"IT":6960,"Ġgnihctam":6961,"ael":6962,"pal":6963,"ecneirepxe":6964,"rreba":6965,"reti":6966,"negortivnI":6967,"Ġdecnalab":6968,"Ġgnidnats":6969,"secils":6970,"47":6971,"Ġnoilgnag":6972,"RADMN":6973,"yhc":6974,"KN":6975,"Ġderocs":6976,"Ġstnedor":6977,"ĠejnikruP":6978,"Ġsmsi":6979,"Ġcitamos":6980,"von":6981,"Ġenalp":6982,"Ġdesrever":6983,"eP":6984,"Ġnmuloc":6985,"Ġylredle":6986,"Ġlanoitidart":6987,"revA":6988,"Ġetairavitlum":6989,"gniS":6990,"Ġsnoitautculf":6991,"Ġdelpmas":6992,"Ġgniog":6993,"sutats":6994,"hparG":6995,"Ġedyhedla":6996,"KA":6997,"roirp":6998,"GC":6999,"Ġdemrofsnart":7000,"Ġetahpsohp":7001,"Ġsyassa":7002,"Ġgnitaludom":7003,"Ġâī¤":7004,"98":7005,"eirter":7006,"cot":7007,"Ġdeg":7008,"iranecs":7009,"90":7010,"Ġ33":7011,"Ġtcurtsnoc":7012,"ĠtnacifingiS":7013,"Ġnoitrop":7014,"saeM":7015,"yaled":7016,"Ġlli":7017,"seitreporp":7018,"Ġtnemecalp":7019,"snarT":7020,"Ġlacino":7021,"Ġssenevit":7022,"Ġtnemeganam":7023,"Ġsutinnit":7024,"noitome":7025,"HL":7026,"nutrop":7027,"Ġflesti":7028,"elcyc":7029,"DG":7030,"lbane":7031,"ERC":7032,"metsyS":7033,"Ã¼":7034,"SMT":7035,"noi":7036,"Ġdlihc":7037,"sec":7038,"Ġcinegohtap":7039,"Ġdetulid":7040,"Ġretuo":7041,"ueN":7042,"Ġela":7043,"Ġgniworg":7044,"tf":7045,"gnil":7046,"fiL":7047,"Ġdetneverp":7048,"ĠPC":7049,"naw":7050,"aT":7051,"oitar":7052,"tnedutS":7053,"Ġdethgilhgih":7054,"WF":7055,"ĠTA":7056,"Ġnoitazit":7057,"Ġcimonotua":7058,"BF":7059,"Ġevig":7060,"ollac":7061,"ehda":7062,"rettam":7063,"Ġlawardhtiw":7064,"Ġdesaib":7065,"ĠNS":7066,"Ġdednu":7067,"Ġcitohcysp":7068,"Ġdetcurtsnoc":7069,"Ġnoitazinorhcnys":7070,"Ġenob":7071,"Ġlatnempolevedoruen":7072,"ĠPFL":7073,"calpsid":7074,"Ġseiro":7075,"rehgih":7076,"Ġedulcnoc":7077,"Ġlacinilcerp":7078,"Ġcitotpopa":7079,"nutroppo":7080,"SMM":7081,"Ġdnetxe":7082,"Ġecneuqesnoc":7083,"Ġtnecrep":7084,"rbi":7085,"Ġamu":7086,"Ġgniniatniam":7087,"carf":7088,"Ġevissecxe":7089,"SPS":7090,"Ġtaog":7091,"ĠCE":7092,"Ġsnaici":7093,"48":7094,"noitaluger":7095,"Ġytefas":7096,"Ġeugitaf":7097,"ciremA":7098,"Ġdioipo":7099,"Ġezag":7100,"Ġnoisicerp":7101,"oL":7102,"noitcerroc":7103,"orets":7104,"202":7105,"Ġnoitalupinam":7106,"Ġylisae":7107,"enola":7108,"itnA":7109,"Ġlaunam":7110,"PAFG":7111,"zylana":7112,"Ġspah":7113,"Ġoot":7114,"Ġgnille":7115,"Ġlautriv":7116,"ECA":7117,"detroper":7118,"tnemg":7119,"gilletni":7120,"ubor":7121,"Ġtuc":7122,"Ġgnitciderp":7123,"teid":7124,"clac":7125,"Ġstifeneb":7126,"tohp":7127,"Ġdezirammus":7128,"BN":7129,"Ġetartsbus":7130,"Ġsseni":7131,"Ġseir":7132,"sitroc":7133,"Ġlanipsorberec":7134,"Ġtaerg":7135,"Ġdetnalpmi":7136,"Ġnonemonehp":7137,"roht":7138,"Ġico":7139,"Ġelbisiv":7140,"Ġsdio":7141,"Ġtik":7142,"xata":7143,"uh":7144,"ĠrorrE":7145,"Ġseslup":7146,"Ġetairav":7147,"ĠcitamehcS":7148,"sehtopyh":7149,"Ġedaccas":7150,"Ġenit":7151,"17":7152,"gM":7153,"gniniats":7154,"rodo":7155,"Ġetaluclac":7156,"Ġdesuoh":7157,"Ġsera":7158,"niM":7159,"enilas":7160,"Ġdezilausiv":7161,"Ġsenilediug":7162,"iretam":7163,"Ġgnile":7164,"Ġdirg":7165,"Ġtnasserpeditna":7166,"Ġderotinom":7167,"mahs":7168,"Ġkcohs":7169,"Ġgnisaerced":7170,"Ġil":7171,"PR":7172,"Ġdetaitnereffid":7173,"thgiew":7174,"Ġsuoicsnoc":7175,"maerts":7176,"Ġerutcip":7177,"seno":7178,"urt":7179,"Ġcimoneg":7180,"mitlu":7181,"Ġnretsew":7182,"Ġtel":7183,"Ġetyco":7184,"Ġeh":7185,"niag":7186,"ihsa":7187,"roire":7188,"rorre":7189,"Ġtnuoc":7190,"Ġgnizeerf":7191,"ĠnihtiW":7192,"rtsba":7193,"Ġnoisulcxe":7194,"Ġecnetsixe":7195,"eton":7196,"Ġgnignahc":7197,"Ġytivitcaer":7198,"Ġlaretalinu":7199,"xoto":7200,"gav":7201,"gerges":7202,"Ġytivitceles":7203,"leD":7204,"Ġnoitarapes":7205,"Ġdeedni":7206,"golorueN":7207,"taC":7208,"ĠlatoT":7209,"Ġevisreva":7210,"ĠBÎº":7211,"saib":7212,"elddim":7213,"erht":7214,"Ġnoitarolpxe":7215,"Ġsisatsoemoh":7216,"Ġlanoroc":7217,"Ġselcisev":7218,"bir":7219,"OT":7220,"oyrbme":7221,"Ġlessev":7222,"noitartsinimda":7223,"Ġdevresnoc":7224,"nibmocer":7225,"Ġalu":7226,"Ġenorets":7227,"KRRL":7228,"Ġlacinonac":7229,"Ġstnemssessa":7230,"Ġevitam":7231,"kaeps":7232,"nrek":7233,"dicni":7234,"Ġsetam":7235,"Ġnoitavitcani":7236,"Ġplacs":7237,"Ġrevewo":7238,"napaJ":7239,"ĠsF":7240,"ĠGRD":7241,"051":7242,"Ġdetartsulli":7243,"Ġworra":7244,"ylt":7245,"Ġnoitatimil":7246,"Ġtiart":7247,"neercs":7248,"enucerp":7249,"rettil":7250,"oz":7251,"Ġdetpada":7252,"ĠSP":7253,"ruena":7254,"Ġytiniffa":7255,"Ġamos":7256,"taf":7257,"Ġsrebmem":7258,"Ġnoisufni":7259,"gip":7260,"Ġtug":7261,"Ġcitso":7262,"Ġrewols":7263,"ĠSN":7264,"Ġgnideef":7265,"nal":7266,"Ġnoitartsiger":7267,"ciffart":7268,"gninaem":7269,"ĠCC":7270,"hoC":7271,"Ġdete":7272,"ylesrevnoC":7273,"Ġsuoenatlumis":7274,"Ġemoh":7275,"Ġhctiws":7276,"Ġstpircsnart":7277,"Ġylroop":7278,"Ġcitenegotpo":7279,"Ġtsixe":7280,"Ġseitluciffid":7281,"Ġnosrep":7282,"Ġ13":7283,"Ġgnicudni":7284,"Ġpm":7285,"Ġdaerps":7286,"Ġlartsor":7287,"Ġnoitelped":7288,"Ġlanih":7289,"Ġ021":7290,"gibma":7291,"Ġylpmis":7292,"Ġgnivil":7293,"nimulli":7294,"Ġlaudiser":7295,"csac":7296,"yP":7297,"Ġnoiterces":7298,"Ġyrtiucric":7299,"AR":7300,"Ġcitsa":7301,"ICS":7302,"Ġelbatceted":7303,"Ġseirotcejart":7304,"Ġgnivorpmi":7305,"CFPm":7306,"Ġlaidar":7307,"Ġrotinegorp":7308,"Ġdeloop":7309,"ecafrus":7310,"Ġsnoitcerid":7311,"dnips":7312,"iK":7313,"iraV":7314,"tibra":7315,"yllacit":7316,"Ġnrael":7317,"ella":7318,"ĠeraC":7319,"Ġesrow":7320,"Ġeziminim":7321,"Ġnoititeper":7322,"Ġsser":7323,"drB":7324,"oD":7325,"ylrae":7326,"Ġderutpac":7327,"Ġ43":7328,"eporuE":7329,"Ġyllaunam":7330,"pots":7331,"AulG":7332,"QA":7333,"FNDB":7334,"secca":7335,"ĠSOR":7336,"nat":7337,"enegomoh":7338,"bx":7339,"revinU":7340,"tsiH":7341,"Ġretropsnart":7342,"Ġevomer":7343,"Ġseitisnetni":7344,"ĠesenihC":7345,"Ġdegami":7346,"Ġralucsavoidrac":7347,"erutaretil":7348,"Ġnoitanidrooc":7349,"ĠRADMN":7350,"Ġlaixa":7351,"Ġgnitibihni":7352,"mgidarap":7353,"domeh":7354,"Ġtnesba":7355,"Ġtsoc":7356,"Ġdehsad":7357,"iT":7358,"ĠnoxocliW":7359,"Ġgnimoc":7360,"saelp":7361,"ĠAM":7362,"Ġcitamotua":7363,"Ġstnuoc":7364,"tirep":7365,"Ġgnitag":7366,"Ġyletarucca":7367,"olB":7368,"Ġsetavitca":7369,"Ġnoisnapxe":7370,"Ġseussi":7371,"Ġsuoenegoreteh":7372,"Ġlasrever":7373,"Ġrotciderp":7374,"29":7375,"opA":7376,"dnim":7377,"polev":7378,"Ġff":7379,"lgnE":7380,"Ġyrotcejart":7381,"Ġelbatius":7382,"Ġgnissim":7383,"codne":7384,"Ġderetsiger":7385,"Ġmhtyhr":7386,"TATS":7387,"Ã¶":7388,"Ġslessev":7389,"Ġsnoitat":7390,"cejer":7391,"Ġedisni":7392,"tsiD":7393,"Ġsrotciderp":7394,"Ġgnittif":7395,"oni":7396,"Ġyerg":7397,"Ġnoitadilosnoc":7398,"Ġlanoitalsnart":7399,"robhgien":7400,"Ġdedna":7401,"wolf":7402,"elam":7403,"meti":7404,"snoitcaretni":7405,"Ġsemoceb":7406,"lCaN":7407,"noitpecrep":7408,"Ġwollof":7409,"Ġseugaelloc":7410,"Ġgniri":7411,"Ġecart":7412,"ĠsD":7413,"Ġelucelom":7414,"neverp":7415,"avral":7416,"ĠnietorP":7417,"epytonehp":7418,"Ġssenluf":7419,"tsrub":7420,"Ġseitira":7421,"ĠFBC":7422,"bre":7423,"Ġdets":7424,"Ġsl":7425,"htlaeH":7426,"BS":7427,"Ġdelb":7428,"Ġsnoitagitsevni":7429,"SPi":7430,"car":7431,"elamef":7432,"Ġevitaicossa":7433,"Ġcitsalp":7434,"cirtam":7435,"Ġsecneirepxe":7436,"isnoC":7437,"Ġedima":7438,"Ġsnoitalumis":7439,"Ġerahs":7440,"Ġ])":7441,"veihca":7442,"ortceps":7443,"Ġcitsigol":7444,"hps":7445,"noitnevretni":7446,"latnorf":7447,"rehda":7448,"Ġcirtaihcysporuen":7449,"Ġdef":7450,"Ġecnahc":7451,"citer":7452,"gde":7453,"ĠANDc":7454,"uos":7455,"Ġgnittes":7456,"Ġlarut":7457,"Ġsetagergga":7458,"Ġdetpursid":7459,"ytisnetni":7460,"rotne":7461,"Ġsetunim":7462,"Ġyllaitnatsbus":7463,"Ġesab":7464,"Ġtem":7465,"droccA":7466,"Ġevitan":7467,"Ġyllaciteneg":7468,"Ġtnarreba":7469,"Ġsnoitcuder":7470,"ĠCN":7471,"meser":7472,"Ġyawa":7473,"Ġcitenegipe":7474,"Ġstibihni":7475,"Ġsnoitaler":7476,"muS":7477,"ĠsegamI":7478,"Ġdettif":7479,"pyta":7480,"tarap":7481,"18":7482,"ĠsnoisulcnoC":7483,"Ġgnitaidem":7484,"Ġxelfer":7485,"ĠesU":7486,"Ġdeunitnoc":7487,"Ġgnikcal":7488,"Ġnoitpircsed":7489,"Ġrosrucerp":7490,"Ġslliks":7491,"Ġlairetam":7492,"Ġetiruen":7493,"emoneg":7494,"Ġcipot":7495,"Ġtpircsunam":7496,"Ġnoitcurtsnocer":7497,"Ġtroffe":7498,"Ġssalg":7499,"retalib":7500,"Ġediug":7501,"Ġtsewol":7502,"uqesnoc":7503,"pel":7504,"Ġesoprup":7505,"hsiugnitsid":7506,"Ġyrotaludom":7507,"Ġcihtaporuen":7508,"ĠDI":7509,"Ġnoisnetxe":7510,"Ġ052":7511,"pU":7512,"Ġnortcele":7513,"epytoneg":7514,"ĠACI":7515,"bmucca":7516,"Ġylelos":7517,"Ġhguone":7518,"Ġtnecseloda":7519,"PAG":7520,"irtu":7521,"Ġetaduac":7522,"Ġskram":7523,"Ġj":7524,"grem":7525,"bmys":7526,"Ġgreb":7527,"Ġeciwt":7528,"ylgnidroccA":7529,"Ġsecudorp":7530,"ĠsANRim":7531,"ĠstceffE":7532,"levon":7533,"icer":7534,"rowteN":7535,"enotom":7536,"Ġlado":7537,"ruenotom":7538,"pes":7539,"oitaps":7540,"sniamod":7541,"Ġlatipsoh":7542,"Ġstcafitra":7543,"ĠCA":7544,"Ġsros":7545,"Ġlacigoloisyhporuen":7546,"Ġrotinom":7547,"laS":7548,"RulGm":7549,"Ġenitocin":7550,"maC":7551,"Ġcilo":7552,"lennahc":7553,"Ġerutxim":7554,"iP":7555,"Ġemoneg":7556,"Ġstrohoc":7557,"Ġlarutsop":7558,"rbetrev":7559,"Ġrotomo":7560,"Ġamuart":7561,"dilla":7562,"ĠtnemtaerT":7563,"hpmyl":7564,"nimaxe":7565,"tirT":7566,"gram":7567,"irporp":7568,"Ġtnatsiser":7569,"Ġsnoisserpxe":7570,"Ġelbulos":7571,"ytivitisnes":7572,"Ġnoitcartxe":7573,"Ġseiromem":7574,"Ġetir":7575,"Ġenon":7576,"Ġsevaw":7577,"mesne":7578,"ĠÏĩ":7579,"Ġsenarbmem":7580,"itoelcun":7581,"Ġlaicifitra":7582,"Ġgnisir":7583,"Ġyeknom":7584,"Ġenarul":7585,"Ġnoitazilamron":7586,"cepsni":7587,"Ġemaceb":7588,"nW":7589,"gel":7590,"Ġsmhtirogla":7591,"Ġevitcepsorp":7592,"Ġnoitamrofsnart":7593,"AH":7594,"Ġniart":7595,"kcalb":7596,"yarg":7597,"Ġdetapicitrap":7598,"Ġym":7599,"percsid":7600,"Ġraelhcoc":7601,"SH":7602,"Ġdetnemucod":7603,"Ġette":7604,"Ġseuqalp":7605,"Ġnoitareneger":7606,"ylG":7607,"Ġdesolc":7608,"ehwor":7609,"BR":7610,"msinahcem":7611,"GM":7612,"DHDA":7613,"laog":7614,"Ġmuis":7615,"Ġdliw":7616,"teR":7617,"Ġsrek":7618,"ohcs":7619,"tseg":7620,"Ġreffo":7621,"GT":7622,"Ġticile":7623,"Ġyltcerroc":7624,"Ġecnatsbus":7625,"Ġsucol":7626,"Ġyllausiv":7627,"tilauq":7628,"pecxe":7629,"Ġlatnor":7630,"ĠnevE":7631,"Ġdnih":7632,"iannoitseuq":7633,"004":7634,"srota":7635,"ĠaxelA":7636,"feirb":7637,"Ġ76":7638,"reg":7639,"yekuT":7640,"Ġ)âĢĿ":7641,"Ġaimehcsi":7642,"Ġgnicnahne":7643,"esapsac":7644,"lG":7645,"Ġyrotasnepmoc":7646,"Ġnoitneter":7647,"Ġgniyduts":7648,"ytila":7649,"Ġrosnes":7650,"Ġdetca":7651,"Ġcisahp":7652,"egla":7653,"latot":7654,"nop":7655,"Ġniarbdim":7656,"enotirep":7657,"Ġdeddebme":7658,"Ġnoiton":7659,"ĠeneG":7660,"Ġdnilb":7661,"Ġssenerawa":7662,"Ġnoitisopmoc":7663,"Ġetaitnereffid":7664,"Ġpuorgbus":7665,"Ġreh":7666,"Ġnigiro":7667,"nopxe":7668,"Ġdia":7669,"Ġdeledom":7670,"ĠEOPA":7671,"KRE":7672,"orw":7673,"xirtam":7674,"Ġlaretalosrod":7675,"cte":7676,"Ġyrammus":7677,"emordnys":7678,"ekaw":7679,"Lm":7680,"noissimsnart":7681,"ĠÎĶ":7682,"Ġeriannoitseuq":7683,"Ġsdnuopmoc":7684,"Ã¯":7685,"gninem":7686,"Ġyrotarolpxe":7687,"ielcun":7688,"Ġgnicudorp":7689,"Ġnoitaitnetop":7690,"rutan":7691,"Ġeludom":7692,"FC":7693,"kaep":7694,"Ġsrotcev":7695,"vel":7696,"ĠĊĠ":7697,"nosirapmoc":7698,"ydobitna":7699,"Ġdeweiv":7700,"Ġecnaraeppa":7701,"Ġyrtemo":7702,"zz":7703,"Ġycnetsisnoc":7704,"Ġcihpargo":7705,"ALTAM":7706,"Ġnosaer":7707,"Ġsuom":7708,"ĠBC":7709,"krT":7710,"flah":7711,"Ġelbaredisnoc":7712,"Ġdnuopmoc":7713,"raen":7714,"ĠEAE":7715,"imes":7716,"rD":7717,"Ġniarts":7718,"krap":7719,"Ġlaud":7720,"ĠRH":7721,"Ġseicnetal":7722,"ĠlatipsoH":7723,"Ġsnoisnemid":7724,"egamI":7725,"Ġevitpecer":7726,"Ġssenevis":7727,"lumucca":7728,"tsy":7729,"Ġreifissalc":7730,"ytici":7731,"syruena":7732,"rehps":7733,"Ġfeirb":7734,"selu":7735,"ede":7736,"cnoc":7737,"ĠSE":7738,"ĠHCI":7739,"snoisel":7740,"levaw":7741,"lak":7742,"MI":7743,"Ġsecruoser":7744,"tinu":7745,"Ġdetnemelppus":7746,"ohpsohp":7747,"Ġdeppi":7748,"ffus":7749,"Ġevitpeco":7750,"ilema":7751,"noitisiuqca":7752,"nnu":7753,"nah":7754,"Ġcirtcele":7755,"nretnI":7756,"KMaC":7757,"Ġecnatcudnoc":7758,"Ġkci":7759,"ĠRT":7760,"Ġ46":7761,"Ġgninimreted":7762,"Ġdesirpmoc":7763,"Ġlauxes":7764,"ĠAB":7765,"Ġleg":7766,"elbaliava":7767,"Ġgnikees":7768,"dekram":7769,"Ġ;]":7770,"Ġnoitavitom":7771,"dnuos":7772,"Ġlattiga":7773,"igerac":7774,"omalaht":7775,"Ġronim":7776,"simor":7777,"Ġcitamotpmys":7778,"secaf":7779,"VoC":7780,"sI":7781,"Ġsnoisiced":7782,"Ġyranib":7783,"Ġ00":7784,"Ġcihportoruen":7785,"/)":7786,"snopseR":7787,"19":7788,"scitsiretcarahc":7789,"ylevita":7790,"cepsrep":7791,"Ġtaert":7792,"yM":7793,"Ġcitsitua":7794,"sIOR":7795,"drah":7796,"Ġgnigreme":7797,"lausiv":7798,"grenys":7799,"ortnev":7800,"Ġgninibmoc":7801,"uP":7802,"reser":7803,"sE":7804,"esaeler":7805,"Ġseudiser":7806,"ĠesaesiD":7807,"Ġetorw":7808,"mÂµ":7809,"Ġesiwrehto":7810,"ommi":7811,"noitulos":7812,"mus":7813,"Ġegd":7814,"Ġyrtemmysa":7815,"Ġcitycortsa":7816,"Ġdetse":7817,"raloprepyh":7818,"hpa":7819,"021":7820,"Ġslaever":7821,"Ġylraen":7822,"Ġnoitulove":7823,"llaW":7824,"ĠsCH":7825,"ĠtnemssessA":7826,"ĠlanoitutitsnI":7827,"UT":7828,"Ġtcartxe":7829,"lesmeht":7830,"drihT":7831,"Ġytidilav":7832,"noitulove":7833,"ĠAN":7834,"cn":7835,"eyaB":7836,"Ġegac":7837,"Ġssenevitceffe":7838,"ĠelpitluM":7839,"tcejbo":7840,"Ġsdnuos":7841,"Ġksam":7842,"simorpmoc":7843,"Ġliated":7844,"etnulov":7845,"DAG":7846,"Ġtcepsa":7847,"Ġcite":7848,"Ġnoiretirc":7849,"Ġdetnuoc":7850,"ĠmÂµ":7851,"300":7852,"Ġcimed":7853,"Ġselpmaxe":7854,"ĠegamI":7855,"gaM":7856,"lag":7857,"Ġdees":7858,"Ġesrevni":7859,"sedortcele":7860,"elbairav":7861,"Ġseciohc":7862,"SRAS":7863,"Ġylgnisaercni":7864,"Ġnoitinifed":7865,"ĊĠĠĊĠ":7866,"iN":7867,"cilfnoc":7868,"Ġegakcap":7869,"Ġlanitsetni":7870,"stegrat":7871,"Ġlatci":7872,"Ġseerged":7873,"Ġgnidecerp":7874,"ebol":7875,"Ġcifitneics":7876,"brecaxe":7877,"seidobitna":7878,"ALF":7879,"Ġaisehtsena":7880,"tcal":7881,"Ġ92":7882,"mucric":7883,"golomoh":7884,"ggat":7885,"Ġdrager":7886,"ĠCFPLD":7887,"xaler":7888,"deecxe":7889,"Ġlaciripme":7890,"Ġeniso":7891,"egaugnal":7892,"kramer":7893,"ĠCM":7894,"anihC":7895,"ĠsoF":7896,"Ġyllauqe":7897,"Ġdnet":7898,"Ġ.)]":7899,"tuob":7900,"loV":7901,"Ġsnoisulcnoc":7902,"morht":7903,"um":7904,"noituloser":7905,"ĠDT":7906,"SMD":7907,"lihC":7908,"tsat":7909,"Ġcimalahtopyh":7910,"Ġylevisulcxe":7911,"Ġdetrevnoc":7912,"Ġsecnahne":7913,"Ġcimhtyhr":7914,"Ġedo":7915,"yxordyh":7916,"noitcefni":7917,"loG":7918,"snoitcennoc":7919,"Ġevag":7920,"Ġesiwriap":7921,"remolg":7922,"vrec":7923,"tanrepus":7924,"VB":7925,"Ġegde":7926,"Ġnoitomocol":7927,"Ġsetaludom":7928,"pucco":7929,"ĠnaiseyaB":7930,"HIN":7931,"Ġdedaol":7932,"hcadaeh":7933,"Ġlacihcrareih":7934,"reB":7935,"seuc":7936,"roloc":7937,"sitas":7938,"Ġretroper":7939,"Ġhtrib":7940,"Ġsegnellahc":7941,"Ġsresu":7942,"Ġgnitceted":7943,"bH":7944,"Ġnoissime":7945,"Ġnoitisoped":7946,"KEH":7947,"Ġsevren":7948,"oviv":7949,"Ġnez":7950,"Ġelcisev":7951,"ĠnyS":7952,"csed":7953,"yrevocer":7954,"Ġcimsalpotyc":7955,"ĠsnorueN":7956,"sret":7957,"aCG":7958,"soryt":7959,"Ġspahrep":7960,"Ġyratnulov":7961,"Ġlatigid":7962,"Ġetauqeda":7963,"Ġrefer":7964,"Ġgnirpsffo":7965,"Ġdetsil":7966,"Ġecneicsoruen":7967,"wS":7968,"nob":7969,"Ġdnib":7970,"ivella":7971,"htapme":7972,"Ġnima":7973,"rC":7974,"celoM":7975,"Ġsnoitanibmoc":7976,"Ġnoitavirped":7977,"ruoivaheb":7978,"Ġtaf":7979,"Ġecnecseroulfonummi":7980,"Ġytinummoc":7981,"dedulcni":7982,"Ġlarbere":7983,"Ġdell":7984,"irF":7985,"Ġsnoitacifidom":7986,"Ġnoitator":7987,"VPRT":7988,"gnaro":7989,"Ġderetnec":7990,"clus":7991,"egareva":7992,"Ġruoivaheb":7993,"Ġlacipa":7994,"tiM":7995,"Ġetaler":7996,"Ġnoitaretla":7997,"gnoL":7998,"seggus":7999,"rebmun":8000,"Ġlipup":8001,"Ġsumalahtopyh":8002,"Ġsmgidarap":8003,"xelp":8004,"laW":8005,"Ġnoitalosi":8006,"Ġytilibi":8007,"iltuo":8008,"ĠICB":8009,"Ġgnitnuoc":8010,"Ġten":8011,"ĠtceffE":8012,"Ġevitcepsrep":8013,"Ġdim":8014,"ĠgnaW":8015,"crof":8016,"pmoced":8017,"itarts":8018,"ĠBd":8019,"uqil":8020,"Ġylwen":8021,"FGI":8022,"Ġatled":8023,"Ġetercsid":8024,"raenil":8025,"Ġ#":8026,"Ġdesserdda":8027,"lppA":8028,"illim":8029,"mmam":8030,"Ġgniva":8031,"ĠsegnahC":8032,"Ġscimo":8033,"ĠstaR":8034,"lahpecneortcele":8035,"Ġdesufrep":8036,"olla":8037,"Ġloop":8038,"trocoen":8039,"ĠeeS":8040,"txet":8041,"naC":8042,"arc":8043,"NT":8044,"Ġlacipyta":8045,"Ġserutcip":8046,"Ġgnitalumits":8047,"Ġcimanydomeh":8048,"ĠefiL":8049,"Ġcirte":8050,"sliated":8051,"Ġep":8052,"Ġsetebaid":8053,"Ġnoxe":8054,"Ġselcitra":8055,"Ġea":8056,"Ġecafretni":8057,"rtcelE":8058,"dnik":8059,"ĠCUA":8060,"Ġyldekram":8061,"Ġlasa":8062,"Ġtaeh":8063,"Ġylsuounitnoc":8064,"rK":8065,"Ġesohc":8066,"Ġaitnatsbus":8067,"ĠCFO":8068,"Ġdleiy":8069,"Ġbal":8070,"Ġstro":8071,"utitsni":8072,"Ġycnednet":8073,"Ġdettimbus":8074,"ĠtahT":8075,"ĠIM":8076,"msilobatem":8077,"GD":8078,"Ġdetaoc":8079,"Ġnoitaziretcarahc":8080,"Ġdednopser":8081,"nesnoc":8082,"ĠTO":8083,"pC":8084,"Ġenomroh":8085,"timoc":8086,"Ġromert":8087,"tehpma":8088,"ĠnosraeP":8089,"nup":8090,"ĠDL":8091,"Ġenilohc":8092,"dillap":8093,"sl":8094,"Ġtoor":8095,"ĠNTS":8096,"Ã¯an":8097,"Ġnward":8098,"deifitnedi":8099,"Ġselcyc":8100,"noitartnecnoc":8101,"Ġlairetra":8102,"snoitces":8103,"bed":8104,"Ġgniyr":8105,"podo":8106,"ĠsM":8107,"Ġelbanu":8108,"ĊĊĊĊĊ":8109,"Ġyaced":8110,"GS":8111,"Ġdilav":8112,"ruoF":8113,"Ġgnitaulave":8114,"elbissop":8115,"052":8116,"cartsid":8117,"Ġnoitpmussa":8118,"Îµ":8119,"Ġthguos":8120,"rots":8121,"Ġ,Â°":8122,"Ġsnoitome":8123,"evitisop":8124,"Ġogrednu":8125,"ĠzHk":8126,"Ġlositroc":8127,"Ġutis":8128,"Ġ,âĢĿ":8129,"Ġ)]":8130,"raf":8131,"Ġyleman":8132,"Ġyralli":8133,"ACS":8134,"Ġsesop":8135,"sevit":8136,"kciuq":8137,"loH":8138,"Ġdediug":8139,"Ġdegreme":8140,"Ġdetceffanu":8141,"Ġevom":8142,"Ġlacinhcet":8143,"Ġ73":8144,"Ġyllaudarg":8145,"Ġrewo":8146,"Ġsmra":8147,"owT":8148,"Ġretne":8149,"ld":8150,"rF":8151,"ĠANRim":8152,"negi":8153,"taerht":8154,"seni":8155,"Ġysa":8156,"deri":8157,"irtun":8158,"EI":8159,"Ġgnitneserp":8160,"Ġreporp":8161,"notsyd":8162,"rehsilbup":8163,"Ġhtrow":8164,"ĠksaT":8165,"ĠSI":8166,"seitiliba":8167,"rbil":8168,"rahs":8169,"Ġlateleks":8170,"Ġaim":8171,"Ġsusnesnoc":8172,"saC":8173,"reffub":8174,"idep":8175,"Ġcitatsoemoh":8176,"Ġlluks":8177,"Ġevitalumuc":8178,"Ġdegagne":8179,"Ġdetciped":8180,"ĠAMS":8181,"celletni":8182,"Ġit":8183,"Ġselgna":8184,"Ġsecidni":8185,"Ġtceles":8186,"lE":8187,"otcart":8188,"mrofarap":8189,"Ġriaper":8190,"Ġstfihs":8191,"Ġstnuoma":8192,"nolc":8193,"Ġdetaitini":8194,"Ġcini":8195,"Ġylekilnu":8196,"murtsnI":8197,"Ġgnimo":8198,"Ġsuogyzoreteh":8199,"eniled":8200,"Ġwolley":8201,"uqE":8202,"Ġecnadnuba":8203,"laitnetop":8204,"Ġhto":8205,"Ġesira":8206,"Ġrebmem":8207,"scimanyd":8208,"Ġyhpargom":8209,"Ġref":8210,"VL":8211,"Ġdedis":8212,"dep":8213,"alusni":8214,"ylimaf":8215,"Ġsdica":8216,"rbilac":8217,"satop":8218,"yci":8219,"hportu":8220,"DDM":8221,"Ġnoitagaporp":8222,"Ġniarberof":8223,"deh":8224,"Ġtnemelpmoc":8225,"Ġ35":8226,"snoxa":8227,"ytireves":8228,"hcae":8229,"Ġlaitneuqes":8230,"Ġllab":8231,"Ġnoitatnemelpmi":8232,"Ġylbailer":8233,"Ġyrtne":8234,"tuO":8235,"PQA":8236,"tnerruc":8237,"Ġrevewoh":8238,"cieL":8239,"Ġloretselohc":8240,"ecitcarp":8241,"losotyc":8242,"Ġtaerht":8243,"iva":8244,"suht":8245,"Ġgnidra":8246,"Ġtcrafni":8247,"erF":8248,"ĠnaeporuE":8249,"eC":8250,"Ġgnihctiws":8251,"ĠdesaercnI":8252,"Ġlacivrec":8253,"milerp":8254,"llaf":8255,"segats":8256,"ruB":8257,"ehworra":8258,"sehcaorppa":8259,"Ġnav":8260,"tenep":8261,"ila":8262,"Ġytilitu":8263,"dehcs":8264,"Ġhctap":8265,"Ġseborp":8266,"gnoleb":8267,"ualp":8268,"dezylana":8269,"Ġedulcxe":8270,"noitav":8271,"xero":8272,"ulC":8273,"nrut":8274,"Ġgnila":8275,"elS":8276,"kcabdeef":8277,"Ġetadicule":8278,"Ġskca":8279,"sorcim":8280,"Ġticilpxe":8281,"NMD":8282,"filpma":8283,"itrauq":8284,"~(":8285,"roulf":8286,"olbo":8287,"roilema":8288,"Ġlanoitidnoc":8289,"TE":8290,"Ġedakcolb":8291,"ĠraluceloM":8292,"Ġdehsinimid":8293,"ĠegarevA":8294,"den":8295,"vK":8296,"Ġegrahcsid":8297,"Ġsseccus":8298,"baR":8299,"Ġsetutits":8300,"sN":8301,"idirbyh":8302,"ĠON":8303,"Ġsmrofosi":8304,"coL":8305,"ihnI":8306,"Ġsoyrbme":8307,"ĠRDF":8308,"ytisned":8309,"pyrt":8310,"ytisrevinU":8311,"Ġcitehtapmys":8312,"tic":8313,"Ġsuoivbo":8314,"Ġ))":8315,"hguor":8316,"noisrev":8317,"Ġtnemegagne":8318,"iR":8319,"Ġ.])":8320,"sworra":8321,"Ġgnitcejorp":8322,"Ġtrexe":8323,"noitaitnereffid":8324,"Ġelbitapmoc":8325,"Ġgnignellahc":8326,"Ġgnisop":8327,"snoitca":8328,"400":8329,"acam":8330,"noissergorp":8331,"Ġyllaudividni":8332,"Ġgniknird":8333,"ĠdnuorgkcaB":8334,"Ġstsrub":8335,"Ġenoc":8336,"Ġsserp":8337,"retsa":8338,"Ġemosa":8339,"Ġkcart":8340,"Ġyllacitamotua":8341,"kaerb":8342,"muidem":8343,"Ġenummiotua":8344,"âĢ¯Ġ":8345,"gnu":8346,"raepS":8347,"ĠSSPS":8348,"Ġylevisnetxe":8349,"nh":8350,"Ġtnemtrapmoc":8351,"ohs":8352,"Ġsemoc":8353,"ĠsecnereffiD":8354,"tra":8355,"stsi":8356,"Ġgninaem":8357,"Ġrotomerp":8358,"Ġgnidaol":8359,"llecrap":8360,"sek":8361,"stiucric":8362,"Ġecneh":8363,"artlu":8364,"netac":8365,"cennoC":8366,"taD":8367,"orta":8368,"Ġyletamitlu":8369,"Ġyllacitametsys":8370,"ĠyramirP":8371,"ĠINM":8372,"iryg":8373,"GP":8374,"curtS":8375,"pag":8376,"yltneuqesnoC":8377,"Ġlautcelletni":8378,"pacse":8379,"tarappa":8380,"rocs":8381,"ĠCSPE":8382,"Ġdenoitisop":8383,"ssenkciht":8384,"fA":8385,"uffid":8386,"Ġstni":8387,"Ġylida":8388,"Ġtil":8389,"doof":8390,"argetni":8391,"Ġdezinagro":8392,"Ġdeniat":8393,"Ġygoloite":8394,"Ġecnaraelc":8395,"enotirepartni":8396,"Ġsetilobatem":8397,"PRLN":8398,"Ġnoitucexe":8399,"Ġnoitalugersyd":8400,"ceV":8401,"Ġnegor":8402,"DD":8403,"tnemssessa":8404,"Ġdeifirup":8405,"Ġlioc":8406,"sR":8407,"Ġdedoc":8408,"Ġnotohp":8409,"osav":8410,"leg":8411,"girt":8412,"Ġlacimehcoib":8413,"rodne":8414,"Ġreven":8415,"FE":8416,"noitareneg":8417,"Ġenildim":8418,"arfni":8419,"Ġdesserped":8420,"teleks":8421,"lpud":8422,"Ġtxet":8423,"tonna":8424,"oduesp":8425,"nretlA":8426,"Ġnoitarepo":8427,"celgen":8428,"elo":8429,"xelfer":8430,"Ġdeifirev":8431,"Ġshcope":8432,"nemow":8433,"Ġyllanoit":8434,"Ġytisrevid":8435,"Ġdehcatta":8436,"Ġyregami":8437,"ĠFR":8438,"Ġytilibarenluv":8439,"hcrup":8440,"dnuorgkcab":8441,"ĠlausiV":8442,"Ġsnoitacilppa":8443,"Ġgniyrrac":8444,"oS":8445,"Ġdevreserp":8446,"Ġnoisrevnoc":8447,"Ġgnisucof":8448,"Ġgnizylana":8449,"eG":8450,"Ġstsartnoc":8451,"Ġsht":8452,"celloC":8453,"omeD":8454,"Ġepytbus":8455,"Ġgnidda":8456,"srekram":8457,"ĠevitatitnauQ":8458,"norhcny":8459,"Ġerup":8460,"Ġetanni":8461,"onima":8462,"ihC":8463,"Ġsrefer":8464,"Ġsetaidem":8465,"miger":8466,"Ġgnitaert":8467,"stupni":8468,"RAP":8469,"LCC":8470,"Ġelbaulav":8471,"Ġcito":8472,"OE":8473,"ĨĴ":8474,"igna":8475,"Ġsevorpmi":8476,"ĠretneC":8477,"evitagen":8478,"seda":8479,"Ġyllaitnereferp":8480,"ĠALB":8481,"ĠerofeB":8482,"macbA":8483,"Ġlainarcsnart":8484,"ĠDTF":8485,"miL":8486,"ekat":8487,"kc":8488,"noitacude":8489,"ĠnoitalerroC":8490,"Ġ44":8491,"Ġseitiladom":8492,"ĠIS":8493,"mra":8494,"Ġgol":8495,"ĠRC":8496,"niarB":8497,"Ġssenk":8498,"Ġsit":8499,"orcen":8500,"sart":8501,"Ġdeppam":8502,"timocnoc":8503,"Ġgniniatsonummi":8504,"oicos":8505,"Ġdetaertnu":8506,"ngaiD":8507,"Ġgnilb":8508,"htapohcysp":8509,"Ġstnereffa":8510,"Ġdepahs":8511,"Ġdetalugernwod":8512,"ĠÎ¼":8513,">(":8514,"ĠSRIN":8515,"rh":8516,"Ġemoso":8517,"ĠSON":8518,"Ġssergorp":8519,"rovaf":8520,"ĠepyT":8521,"Ġsepytoneg":8522,"Ġekawa":8523,"rotsid":8524,"Ġnoitacifidom":8525,"Ġstcatnoc":8526,"ahS":8527,"Ġsekat":8528,"Ġevitpecicon":8529,"Ġpots":8530,"HO":8531,"Ġecneilas":8532,"dixoitna":8533,"Ġdetanileym":8534,"Ġav":8535,"Ġylbmessa":8536,"ĠNI":8537,"Ġynorhcnys":8538,"Ġetiuq":8539,"aimehcsi":8540,"Ġaremac":8541,"odne":8542,"Ġnoitaziraloped":8543,"Ġsetycordnedogilo":8544,"Ġelbitpecsus":8545,"TEP":8546,"Ġygolonhcet":8547,"nits":8548,"tirW":8549,"Ġnoitcudsnart":8550,"tnenopmoc":8551,"oned":8552,"pool":8553,"seussit":8554,"ĠgniredisnoC":8555,"Ġrotacidni":8556,"Ġekaw":8557,"mogilo":8558,"ĠSCA":8559,"tipsoh":8560,"Ġdevlos":8561,"Ġyratnemelpmoc":8562,"fnI":8563,"Ġdesylana":8564,"iliser":8565,"Ġssensuoicsnoc":8566,"CADH":8567,"ĠAPMA":8568,"Ġdeificeps":8569,"Ġseludom":8570,"etalp":8571,"Ġselbane":8572,"Ġgniweiv":8573,"Ġelbarenluv":8574,"enO":8575,"Ġdrocer":8576,"Ġytiladom":8577,"Ġlu":8578,"HA":8579,"yhP":8580,"Ġsdnib":8581,"poto":8582,"Ġtsalb":8583,"Ġtsol":8584,"noitaru":8585,"Ġdilos":8586,"ĠSBT":8587,"lugnic":8588,"ĠSAWG":8589,"sD":8590,"gele":8591,"Ġsexelpmoc":8592,"yltneuqesbuS":8593,"sANR":8594,"Ġenisoryt":8595,"sretsulc":8596,"ĊĠĠĠ":8597,"noitcudorp":8598,"Ġsetartsbus":8599,"Ġdleh":8600,"ĠrednU":8601,"Ġlacisum":8602,"gat":8603,"peek":8604,"revni":8605,"seigolonhceT":8606,"serP":8607,"Ġsknil":8608,"Ġlacigoloiboruen":8609,"poleveD":8610,"snoruenretni":8611,"ĠyrammuS":8612,"Ġtnemele":8613,"desaercni":8614,"Ġgnikciffart":8615,"llirbif":8616,"ĠĠĠĠĠĠĠĠ":8617,"ews":8618,"Ġsecirtam":8619,"Ġlacigolotsih":8620,"ĠPNS":8621,"Ġdesivrepus":8622,"ĠNOI":8623,"lep":8624,"/<:":8625,"Ġcimonoce":8626,"dC":8627,"Ġdegamad":8628,"Ġlaires":8629,"hportuen":8630,"Ġmuissatop":8631,"ĠevÃ¯an":8632,"obecalp":8633,"Ġcipytonehp":8634,"ĠSIA":8635,"Ġgniriuqer":8636,"nosnikrap":8637,"Ġlaicifrepus":8638,"tnemgua":8639,"FP":8640,"esoculg":8641,"Ġlacigolonohp":8642,"Ġnoitasi":8643,"Ġlari":8644,"zinagro":8645,"Ġedargorter":8646,"Ġlanihrotne":8647,"Ġnoisnemid":8648,"soR":8649,"ĠPMA":8650,"Ġedocne":8651,"Ġsnur":8652,"Ġnoitavrenni":8653,"Ġeuqalp":8654,"Ġtcepxe":8655,"MT":8656,"Ġsesehtopyh":8657,"lohW":8658,"ĠsCSPE":8659,"RDF":8660,"Ġdetcurtsnocer":8661,"Ġstcudorp":8662,"cap":8663,"tnewT":8664,"OH":8665,"snoitatimil":8666,"GN":8667,"Ġetadilav":8668,"Ġysae":8669,"yhcnerap":8670,"stcejbo":8671,"Ġgnidnuofnoc":8672,"Ġgnitcaretni":8673,"Ġaime":8674,"Ġswodniw":8675,"FGT":8676,"Ġdecalper":8677,"cS":8678,"remmi":8679,"seuqinhcet":8680,"lB":8681,"gnidrocer":8682,"corpicer":8683,"naP":8684,"ĠecnO":8685,"Hp":8686,"Ġyradnuob":8687,"ĠRS":8688,"nehoC":8689,"Ġdetpoda":8690,"iii":8691,"ceriD":8692,"Ġria":8693,"ĠBALTAM":8694,"Ġdito":8695,"Ġseilimaf":8696,"Ġstsalb":8697,"Ġhcuot":8698,"Ġsreffo":8699,"Ġyranimilerp":8700,"Ġnoisulcco":8701,"Ġyltrap":8702,"Ġdenil":8703,"ehc":8704,"Ġsecnatsid":8705,"rehsiF":8706,"orez":8707,"Ġeucser":8708,"fle":8709,"nera":8710,"Ġgniti":8711,"orB":8712,"ertxe":8713,"orcam":8714,"dI":8715,"Ġylkciuq":8716,"PMaCG":8717,"ĠĊĊĊ":8718,"Ġspuorgbus":8719,"serutluc":8720,"wtfoS":8721,"Ġgnikoms":8722,"lacigolo":8723,"ĠhgiH":8724,"Ġresu":8725,"Ġytniatrecnu":8726,"Ġ55":8727,"Ġsf":8728,"Ġnoitatumrep":8729,"Ġlattigas":8730,"olpxe":8731,"stnemerusaem":8732,"Ġmarg":8733,"ĠPFY":8734,"evita":8735,"Ġdetcessid":8736,"ĠME":8737,"noisnemid":8738,"Ġlamos":8739,"maH":8740,"Ġcibo":8741,"XF":8742,"Ġnoitapicitrap":8743,"seitivitca":8744,"hCAn":8745,"Ġlatnorfo":8746,"Ġnematup":8747,"/-":8748,"elacS":8749,"ĠmetsyS":8750,"grevid":8751,"Ġgnigareva":8752,"OG":8753,"Ġsecived":8754,"Ġyrotammalfniorp":8755,"Ġsnoitaived":8756,"sniarb":8757,"liavA":8758,"civ":8759,"Ġeltbus":8760,"Ġlacigolodohtem":8761,"dixorep":8762,"Ġnoisehda":8763,"Ġserehpsimeh":8764,"Ġnoitpo":8765,"ĠiL":8766,"slav":8767,"sCP":8768,"vaelc":8769,"tamoT":8770,"sorp":8771,"Ġcitehtnys":8772,"ĠruoF":8773,"tnaS":8774,"Ġscitenik":8775,"gnita":8776,"Ġenotsih":8777,"ĠweiveR":8778,"ns":8779,"dlihC":8780,"SAU":8781,"rettab":8782,"artsto":8783,"Ġyltaerg":8784,"Ġsmargo":8785,"htaerb":8786,"Ġsmhtyhr":8787,"Ġsddo":8788,"artne":8789,"slexov":8790,"ĠAR":8791,"Ġecnairavoc":8792,"Ġnezorf":8793,"VIH":8794,"giv":8795,"Ġnoitazilausiv":8796,"Ã¡":8797,"ĠIMB":8798,"Ġgnillangis":8799,"Ġylppa":8800,"tipa":8801,"retnec":8802,"Ġdenoisel":8803,"Ġdetnuocca":8804,"noitalerroc":8805,"gralne":8806,"ĠnotirT":8807,"dih":8808,"reffus":8809,"Ġpit":8810,"Ġlacigoloisyhpohtap":8811,"LR":8812,"ĠMP":8813,"osina":8814,"Ġyhpargomot":8815,"elgna":8816,"Ġllaw":8817,"dnemmocer":8818,"LN":8819,"ekips":8820,"Ġ93":8821,"Ġruoh":8822,"peD":8823,"Ġetycordnedogilo":8824,"Ġsetalp":8825,"Ġdoohtluda":8826,"Ġsisyl":8827,"neB":8828,"ĠPS":8829,"aew":8830,"gnitnoc":8831,"Ġnir":8832,"depmi":8833,"Ġgninnalp":8834,"TULG":8835,"Ġnoitatilicaf":8836,"terces":8837,"Ġetsat":8838,"ĠPEM":8839,"Ġyllautca":8840,"hceeps":8841,"ĠlaicoS":8842,"saps":8843,"Ġselb":8844,"ecnacifingis":8845,"retemaid":8846,"Ġcitsinahcem":8847,"FGF":8848,"sgurd":8849,"Ġtsegnorts":8850,"Ġsir":8851,"ĠriehT":8852,"Ġdnagil":8853,"Ġsserppus":8854,"ĠroirP":8855,"Ġecnecseloda":8856,"KS":8857,"Ġtnadnuba":8858,"Ġmuta":8859,"ĠQI":8860,"lP":8861,"ĠKRE":8862,"Ġladomitlum":8863,"ĠdeR":8864,"oY":8865,"Ġdrawt":8866,"cnupu":8867,"ĠMA":8868,"Ġsub":8869,"Ġnitamorhc":8870,"nosraeP":8871,"etna":8872,"Ġhctip":8873,"toiB":8874,"DPU":8875,"Ġdedarg":8876,"htworg":8877,"remylop":8878,"Ġlufrewop":8879,"Ġytivitcarepyh":8880,"Ġlanolco":8881,"Ġslenap":8882,"Ġstsinoga":8883,"BH":8884,"Ġeavral":8885,"Ġnoitacilper":8886,"sirP":8887,"SDS":8888,"rohtua":8889,"Ġesuffid":8890,"ĠRCPq":8891,"Ġrotaluger":8892,"nip":8893,"evitca":8894,"ĠĠâĢīĠ":8895,"Ġevitacidni":8896,"hcus":8897,"tnetnoc":8898,"Ġylemertxe":8899,"gnitnu":8900,"ĠPM":8901,"ĠtneitaP":8902,"Ġyleerf":8903,"nalem":8904,"stnemtaert":8905,"ĠRV":8906,"pihsnoitaler":8907,"ono":8908,"Ġenihprom":8909,"hctap":8910,"ĠlarueN":8911,"sCS":8912,"Ġetanimircsid":8913,"lynehp":8914,"Ġtnemngila":8915,"Ġsnoitcaer":8916,"teP":8917,"namuh":8918,"smelborp":8919,"ĠÎ´":8920,"ĠgnidrageR":8921,"Ġsnoitulos":8922,"doohtluda":8923,"Ġdekcol":8924,"MERT":8925,"levart":8926,"Ġdesiar":8927,"MPS":8928,"Ġstroffe":8929,"tsaL":8930,"Ġtnetal":8931,"Ġsdrawer":8932,"Ġsweiv":8933,"oK":8934,"Ġyllanoitidda":8935,"Ġdeveileb":8936,"tsoc":8937,"Ġerutammi":8938,"Ġtoof":8939,"ĠetatS":8940,"opa":8941,"Ġgniknil":8942,"Ġmui":8943,"nd":8944,"edom":8945,"ameht":8946,"Ġevitingocoruen":8947,"ĠHMW":8948,"ĠnoitavitcA":8949,"9102":8950,"ĠylraE":8951,"ĠnoitamrofnI":8952,"dir":8953,"cejbO":8954,"Ġnoitalugernwod":8955,"lludem":8956,"slavretni":8957,"Ġdloh":8958,"tadpu":8959,"texo":8960,"nacs":8961,"Ġgnisirpmoc":8962,"ĠIPAD":8963,"Ġsemyzne":8964,"ĠsesylanA":8965,"Ġdetalernu":8966,"Ġgnilacs":8967,"Ġyrtsimehcotsihonummi":8968,"lioc":8969,"srorre":8970,"ĠACP":8971,"yletarapes":8972,"llim":8973,"sCH":8974,"lS":8975,"Ġenarulfosi":8976,"Ġserus":8977,"ydo":8978,"sepytonehp":8979,"Ġsedosipe":8980,"Ġesnetni":8981,"Ġartceps":8982,"tarobaL":8983,"ssor":8984,"omeh":8985,"enip":8986,"Ġgnirobhgien":8987,"isuf":8988,"Ġgniretlif":8989,"Ġsegde":8990,"loS":8991,"toof":8992,"arpus":8993,"kcaJ":8994,"Ġsdnamed":8995,"noroc":8996,"Ġsworra":8997,"Ġgninrecnoc":8998,"soiB":8999,"Ġymot":9000,"Ġdeggat":9001,"naht":9002,"setar":9003,"Ġsecnavda":9004,"DR":9005,"Ġderetne":9006,"Ġ.).":9007,"citon":9008,"pilo":9009,"lef":9010,"Ġevitcepsorter":9011,"Ġnottub":9012,"letalp":9013,"PTL":9014,"Ġnoitavele":9015,"ĠweN":9016,"ian":9017,"Ġdenruter":9018,"pd":9019,"etamatulg":9020,"Ġssenlli":9021,"Ġdesahcrup":9022,"Ġneet":9023,"Ġlatanerp":9024,"Ġsuonegoxe":9025,"ĠsCGR":9026,"Ġseruta":9027,"Ġteg":9028,"Ġyllacitirc":9029,"Ġtnanibmocer":9030,"Ġgnitalucric":9031,"Ġsma":9032,"ĠMn":9033,"Ġdetneiro":9034,"Ġdevloser":9035,"Ġecruo":9036,"rosba":9037,"Ġytilibixelf":9038,"nimu":9039,"Ġsniarts":9040,"ĠgT":9041,"Ġdegufirtnec":9042,"lucicsaf":9043,"Ġremrof":9044,"xelsyd":9045,"surK":9046,"ecnedive":9047,"Ġecnegreme":9048,"eniacoc":9049,"Ġnoitcudnoc":9050,"ipS":9051,"ĠwoH":9052,"Ġdiuqil":9053,"Ġdezimitpo":9054,"Ġicol":9055,"nmuloc":9056,"caM":9057,"Ġstciderp":9058,"luco":9059,"ĠtnereffiD":9060,"Ġgnimirp":9061,"eK":9062,"sisotpopa":9063,"Ġhtuo":9064,"Ġetaf":9065,"Ġstsinogatna":9066,"ĠSH":9067,"Ġditorac":9068,"PhparG":9069,"roiretna":9070,"ĠekortS":9071,"xed":9072,"Ġdetu":9073,"Ġylidaer":9074,"Ġllaf":9075,"ĠlaudividnI":9076,"Ġspup":9077,"Ġetartsulli":9078,"oigna":9079,"Ġsdaer":9080,"gru":9081,"ĠÏĦ":9082,"motsuc":9083,"taP":9084,"BE":9085,"Ġhcnarb":9086,"aL":9087,"Ġticilpmi":9088,"ĠtiK":9089,"Ġeveileb":9090,"Ġderevocsid":9091,"Ġlacov":9092,"erew":9093,"Ġrabmul":9094,"ytilibairav":9095,"amuart":9096,"tuf":9097,"Ġene":9098,"Ġlufgninaem":9099,"htac":9100,"noitse":9101,"ĠrotoM":9102,"Ġtnema":9103,"iliffa":9104,"Ġsgnittes":9105,"Ġcigrenerda":9106,"Ġwap":9107,"Ġraelcu":9108,"PD":9109,"evitingoc":9110,"Ġsecnabrutsid":9111,"Ġgnirolpxe":9112,"ĠĊĠĠĠĠĊ":9113,"oyrc":9114,"Ġtod":9115,"Ġaisa":9116,"idibromoc":9117,"Ġtnafni":9118,"Ġdeifilpma":9119,"Ġgnissecorperp":9120,"Ġsegatnavda":9121,"ĊĠĊ":9122,"irtnuoc":9123,"Ġdednapxe":9124,"Ġdellorne":9125,"Ġnoillim":9126,"Ġrekaew":9127,"hsu":9128,"Ġgnitneverp":9129,"Ġregna":9130,"gar":9131,"Ġsthgilhgih":9132,"stesatad":9133,"ĠynA":9134,"cotyxo":9135,"Ġemosomorhc":9136,"ssenlli":9137,"Ġlaciremun":9138,"Ġtu":9139,"ĠOG":9140,"lCK":9141,"ĠsnoitceS":9142,"Ġdetfihs":9143,"ĠnoisserpeD":9144,"Ġ26":9145,"Ġrosnet":9146,"Ġnoitacifingam":9147,"Ġytilibaemrep":9148,"Ġdereffub":9149,"Ġlexip":9150,"SCD":9151,"secitroc":9152,"ammag":9153,"Ġesraps":9154,"itinI":9155,"dnuh":9156,"Ġcire":9157,"Ġlailimaf":9158,"lob":9159,"sartlu":9160,"Ġderoloc":9161,"Ġhguor":9162,"ycna":9163,"ĠEN":9164,"ihsaf":9165,"noitarenegedoruen":9166,"htaP":9167,"Ġtpircsnart":9168,"reH":9169,"Ġdraob":9170,"rofmoc":9171,"UC":9172,"Ġcilbup":9173,"Ġnoruenretni":9174,"skcolb":9175,"Ġnoitarugifnoc":9176,"Ġnoitallicso":9177,"Ġgnitarepo":9178,"ĠkrowteN":9179,"tipicerp":9180,"SE":9181,"pmocne":9182,"erd":9183,"otpelipe":9184,"devomer":9185,"Ġralusni":9186,"artstoob":9187,"ymo":9188,"tuM":9189,"ĠgÎ¼":9190,"ML":9191,"ralimis":9192,"Ġdenut":9193,"Ġstimil":9194,"tsubor":9195,"artser":9196,"etarts":9197,"erutuf":9198,"Ġnixot":9199,"yrosnes":9200,"Ġcitenik":9201,"Ġdezilaiceps":9202,"tolp":9203,"Ġmusollac":9204,"dedulcxe":9205,"Ġlatnorfotibro":9206,"IOD":9207,"Ġdevom":9208,"laud":9209,"Ġdepp":9210,"ygoloisyhp":9211,"ĠoG":9212,"Ġecnerefni":9213,"lys":9214,"Ġetirdned":9215,"spets":9216,"lavivrus":9217,"cilis":9218,"Ġetalumits":9219,"Ġcitsiliba":9220,"detset":9221,"nevuj":9222,"nan":9223,"Ġrevel":9224,"Ġtneiciffusni":9225,"rotibihni":9226,"Ġgnidnecsed":9227,"ĠlatneM":9228,"Ġyfirev":9229,"idnoC":9230,"ĠlacitroC":9231,"Ġsegnar":9232,"Ġedirolhc":9233,"Ġyllaropmet":9234,"Ġevil":9235,"Ġlamososyl":9236,"Ġrevil":9237,"Ġâī¥":9238,"Ġdednilb":9239,"pols":9240,"Ġdednep":9241,"stes":9242,"aH":9243,"Ġhsa":9244,"pmeT":9245,"Ġytilanosrep":9246,"itnecrep":9247,"seig":9248,"Ġelbarovaf":9249,"Ġdenet":9250,"ĠÂ":9251,"Ġthgin":9252,"erusserp":9253,"cudeR":9254,"stluseR":9255,"sreyal":9256,"Ġnoitanima":9257,"Ġenirum":9258,"pr":9259,"Ġdeme":9260,"Ġehcadaeh":9261,"Ġcigrenotores":9262,"Ġtnemecrofnier":9263,"Ġevitarepotsop":9264,"Ġlamreht":9265,"snoitatum":9266,"Ġkciht":9267,"raeL":9268,"Ġslebal":9269,"retcarahC":9270,"Ġylevitingoc":9271,"ĠTN":9272,"cejorP":9273,"elcsum":9274,"Ġstod":9275,"MEM":9276,"ĠASI":9277,"ccav":9278,"Ġdetnemges":9279,"Ġtpmetta":9280,"Ġdootsrednu":9281,"seigetarts":9282,"tcart":9283,"prednu":9284,"pmussa":9285,"Ġ86":9286,"Ġlare":9287,"Ġetargetni":9288,"Ġgnimrifnoc":9289,"iecnoc":9290,"Ġtliub":9291,"gninoitidnoc":9292,"EB":9293,"ĠyrrehCm":9294,"iliuqe":9295,"ĠDTL":9296,"Ġedyhedlamrofarap":9297,"smeti":9298,"Ġmrofinu":9299,"Ġsreggirt":9300,"Ġstcapmi":9301,"Ġlanipsocitroc":9302,"Ġdemret":9303,"Ġsemitemos":9304,"wteB":9305,"Ġsnoitpo":9306,"cib":9307,"evren":9308,"noitagitsevni":9309,"Ġtnemtrap":9310,"ssop":9311,"Ġsnoitacilpmoc":9312,"snoC":9313,"ĠytilibaliavA":9314,"ecnairav":9315,"ercni":9316,"Ġmaertspu":9317,"rod":9318,"sriap":9319,"KC":9320,"Ġlaropmetoitaps":9321,"ĠET":9322,"spam":9323,"Ġenilepip":9324,"Ġesned":9325,"ĠSV":9326,"YC":9327,"cnupuca":9328,"Ġsrotinegorp":9329,"raug":9330,"nic":9331,"uD":9332,"Ġargin":9333,"Ġsetyc":9334,"Ġskrow":9335,"lpicnirp":9336,"norhC":9337,"Ġnimub":9338,"ĠgnahZ":9339,"Ġtsoh":9340,"naeM":9341,"ĠroulF":9342,"amuserp":9343,"Ġemussa":9344,"Ġgnipyt":9345,"ugnil":9346,"ĠFFO":9347,"ediw":9348,"Ġweivrevo":9349,"llep":9350,"dahs":9351,"Ġsevlesmeht":9352,"esuo":9353,"ivid":9354,"rdauq":9355,"revortnoc":9356,"Ġaixopyh":9357,"Ġselcitrap":9358,"lar":9359,"Ġelop":9360,"neD":9361,"ĠLM":9362,"Ġ69":9363,"Ġpilf":9364,"GgI":9365,"ana":9366,"snoitcurtsni":9367,"Ġseiler":9368,"apo":9369,"ĠyaD":9370,"nota":9371,"recylg":9372,"lU":9373,"Ġssenevisnopser":9374,"pir":9375,"ecnereffid":9376,"Ġtneurgnocni":9377,"yT":9378,"Ġgnirocs":9379,"ĠgnitaR":9380,"dedrocer":9381,"ĠseulaV":9382,"Ġladi":9383,"Ġegagne":9384,"Ġylti":9385,"setyco":9386,"Ġgnitimil":9387,"megirt":9388,"Ġnoitaluclac":9389,"TAG":9390,"laropmet":9391,"ĠPFGE":9392,"cc":9393,"zHk":9394,"aniter":9395,"Ġyport":9396,"srebif":9397,"Ġstsixe":9398,"Ġenif":9399,"Ġseitisned":9400,"Ġlavorppa":9401,"otsihonummI":9402,"Ġyfiralc":9403,".)":9404,"erofeb":9405,"seicneuqerf":9406,"gnarra":9407,"nets":9408,"Ġytisebo":9409,"Ap":9410,"Ġslo":9411,"serpmoc":9412,"ĠIH":9413,"detagitsevni":9414,"Ġnagro":9415,"FR":9416,"Ġnoitacilbup":9417,"Ġdetacilper":9418,"ĠlanoitanretnI":9419,"ssecca":9420,"Ġenisoneda":9421,"tepmoc":9422,"laksurK":9423,"Ġebut":9424,"gninoitcnuf":9425,"Ġgnitirw":9426,"Ġsnebmucca":9427,"ĠatnaS":9428,"mrofreP":9429,"Ġdednemmocer":9430,"Ġcidarops":9431,"Ġnageb":9432,"teg":9433,"Ġralunarg":9434,"rd":9435,"Ġcime":9436,"nileymed":9437,"Ġgnipeek":9438,"Ġcirtaidep":9439,"Ġyttaf":9440,"WD":9441,"salP":9442,"ĠselpmaS":9443,"Ġtnorf":9444,"urD":9445,"Ġepacse":9446,"Ġtnatimocnoc":9447,"Ġgnicart":9448,"icsoiB":9449,"etnaraug":9450,"Ġypoc":9451,"ĠGM":9452,"ytiv":9453,"nepxe":9454,"eerF":9455,"EPEH":9456,"nesrow":9457,"luvnoc":9458,"Ġsdno":9459,"Ġsnoitcurtsni":9460,"gile":9461,"Ġwonk":9462,"Ġdedulcnoc":9463,"Ġstnerap":9464,"Ġstcurtsnoc":9465,"Ġnoissimsnartoruen":9466,"knil":9467,"nomrah":9468,"Ġlatnerap":9469,"Ġylevitca":9470,"colB":9471,"Ġsuogyzomoh":9472,"llys":9473,"Ġdecrof":9474,"hsif":9475,"Ġtilps":9476,"Ġemocrevo":9477,"Ġlaitapso":9478,"Ġmrofisuf":9479,"LAG":9480,"Ġ006":9481,"Ġderevocer":9482,"Ġnib":9483,"gnip":9484,"Ġdetresni":9485,"Ġenidi":9486,"Ġeunitnoc":9487,"+(":9488,"irra":9489,"ĠHD":9490,"Ġetairavinu":9491,"enoN":9492,"sefil":9493,"tuptuo":9494,"htira":9495,"Ġnoitneverp":9496,"llacer":9497,"Ġal":9498,"pmacoppiH":9499,"ĠAT":9500,"Ġgnidulcxe":9501,"Ġnoitaulav":9502,"Ġraluci":9503,"bmorht":9504,"nawhcS":9505,"Ġenecs":9506,"netsil":9507,"xototicxe":9508,"Ġstneverp":9509,"ruocne":9510,"ĠnaciremA":9511,"Ġtesffo":9512,"Ġgninepo":9513,"Ġesuba":9514,"ortsA":9515,"OI":9516,"xoF":9517,"Ġelitrauq":9518,"Ġralucsavorberec":9519,"OA":9520,"dera":9521,"doced":9522,"Ġlanolconom":9523,"sleH":9524,"Ġlenrek":9525,"decorP":9526,"Ġkcolc":9527,"ytilibaticxe":9528,"Ġsnoitacidem":9529,"Ġsisongorp":9530,"Ġtnelaverp":9531,"ĠpeelS":9532,"Ġsretnec":9533,"divE":9534,"Ġneddih":9535,"ĠstnemirepxE":9536,"Ġsedils":9537,"Ġylbamuserp":9538,"DE":9539,"Ġlaiceps":9540,"Ġtnerrucnoc":9541,"nK":9542,"lellarap":9543,"yL":9544,"EOPA":9545,"ĠFB":9546,"Ġkcabdee":9547,"fc":9548,"sdna":9549,"Ġseitiralimis":9550,"noitceted":9551,"Ġgnirevoc":9552,"ĠlacigolorueN":9553,"/<+":9554,"ĠesuoM":9555,"RMF":9556,"Ġezilausiv":9557,"ĠROTm":9558,"Ġsuonevartni":9559,"Ġcirtemulov":9560,"mhtirogla":9561,"ĠsillaW":9562,"ĠIBTm":9563,"cideM":9564,"ĠANRis":9565,"Ġytinutroppo":9566,"Ġtcartsba":9567,"knisleH":9568,"dero":9569,"obor":9570,"ugirt":9571,"ĠAG":9572,"Ġnoitautis":9573,"Ġlacirogetac":9574,"Ġsnosaer":9575,"secneuqes":9576,"itnedI":9577,"Ġlacitrocoen":9578,"msitua":9579,"ĠASILE":9580,"ĠdaPhparG":9581,"Ġatcnup":9582,"UM":9583,"GAR":9584,"Ġlacir":9585,"irted":9586,"ADMN":9587,"Ġraenilnon":9588,"Ġ74":9589,"Î´":9590,"ehW":9591,"ircas":9592,"Ġetisopmoc":9593,"ROTm":9594,"ST":9595,"ĠnnawhcS":9596,"sirT":9597,"noitatneserp":9598,"Ġlaileht":9599,"Ġsyalpsid":9600,"Ġegahrromeh":9601,"ymot":9602,"Ġnimativ":9603,"ĠPT":9604,"graT":9605,"Ġsredro":9606,"Ġelbisualp":9607,"Ġmialc":9608,"Ġcise":9609,"seforp":9610,"ceip":9611,"Ġmargaid":9612,"srohtua":9613,"ĠeussiT":9614,"ĠMC":9615,"Ġsrotaidem":9616,"eruzies":9617,"llaw":9618,"repuS":9619,"Ġegarots":9620,"Ġnoitaral":9621,"Ġedacsac":9622,"pecicon":9623,"Ġseilpmi":9624,"hcoR":9625,"serf":9626,"lO":9627,"xaM":9628,"Ġyrati":9629,"Ġcityco":9630,"RAPMA":9631,"Ġnoitaredisnoc":9632,"balo":9633,"Ġdetpecca":9634,"ĠsANRm":9635,"Ġrorrim":9636,"deiduts":9637,"Mn":9638,"Ġdetf":9639,"ĠST":9640,"Ġsemarf":9641,"esicrexe":9642,"Ġetupmoc":9643,"rfer":9644,"yllacificeps":9645,"Ġgnitupmoc":9646,"Ġyticit":9647,"Ġgnidnetxe":9648,"ĠCGR":9649,"sicerp":9650,"sarg":9651,"Ġgnicnelis":9652,"lonahte":9653,"gp":9654,"sred":9655,"xoS":9656,"senikotyc":9657,"Ġsehcnarb":9658,"knar":9659,"een":9660,"DSTP":9661,"Ġnoitaunetta":9662,"Ġsila":9663,"Ġytilibaiv":9664,"ĠlanorueN":9665,"Ġreksihw":9666,"Ġseviecer":9667,"aics":9668,"Ġsetoned":9669,"urC":9670,"Ġpeek":9671,"ĠâĢĲ":9672,"eT":9673,"Ġylf":9674,"Ġgnissorc":9675,"Ġsreht":9676,"Ġytilit":9677,"ĠnoskcaJ":9678,"cifircas":9679,"Ġezisehtopyh":9680,"Ġsrosnes":9681,"Ġevissergga":9682,"Ã¤":9683,"sohcysp":9684,"detneserp":9685,"artet":9686,"Ġseirav":9687,"robal":9688,"Ġeditoelcun":9689,"Ġyllaretalib":9690,"AMS":9691,"tamoTdt":9692,"Ġriapmi":9693,"orelc":9694,"Ġdehsiloba":9695,"nag":9696,"rohc":9697,"Ġgnitaluclac":9698,"Ġaisegla":9699,"Ġdeterces":9700,"Ġecnetnes":9701,"rewol":9702,"Ġ64":9703,"Ġnoitalba":9704,"Ġngi":9705,"amehtam":9706,"hsinup":9707,"giD":9708,"Ġgel":9709,"Ġsmrofevaw":9710,"Ġeltrats":9711,"Ġdeyalp":9712,"ateht":9713,"Ġnoisneherpmoc":9714,"Ġgnivomer":9715,"tnemgarf":9716,"ĠsPRE":9717,"celeS":9718,"ĊĠĊĠĊĊ":9719,"reffo":9720,"Ġlanoitcarf":9721,"Ġniats":9722,"Ġsniart":9723,"Ġygoloib":9724,"Ġlacihte":9725,"ĠESMM":9726,"liateD":9727,"Ġhtooms":9728,"Ġenarbmemsnart":9729,"Ġtnemecalpsid":9730,"ĠLÎ¼":9731,"Ġsetairavoc":9732,"sitlum":9733,"Ġetanidrooc":9734,"slenap":9735,"mures":9736,"BBB":9737,"Ġnaps":9738,"Ġgniogrednu":9739,"ĠAA":9740,"lupmoc":9741,"daetsnI":9742,"ĠPMAc":9743,"LH":9744,"ĠCD":9745,"Ġsetatilicaf":9746,"Ġelbanosaer":9747,"iteppa":9748,"Ġtsetaerg":9749,"Ġyhpargotcart":9750,"Ġresolc":9751,"Ġdesopmi":9752,"usrup":9753,"Ġthgils":9754,"stnedor":9755,"Ġcitsilibaborp":9756,"PTG":9757,"otoh":9758,"210":9759,"mosni":9760,"terts":9761,"sp":9762,"Ġnoitagivan":9763,"Ġelpicnirp":9764,"Ġefas":9765,"fN":9766,"ĠOKc":9767,"ĠAE":9768,"retupmoc":9769,"Ġetutitsnoc":9770,"otpircsnart":9771,"ekiL":9772,"ĠKN":9773,"sisenegoruen":9774,"ĠelpmaS":9775,"ĠCOR":9776,"Ġdetsal":9777,"isoP":9778,"yna":9779,"Ġgnitsujda":9780,"Ġtnemtsujda":9781,"selcsum":9782,"ĠsTR":9783,"Ġlace":9784,"Ġciremo":9785,"ylatac":9786,"eropil":9787,"noitarefilorp":9788,"eV":9789,"portne":9790,"ĠVAA":9791,"GAC":9792,"Ġsedaccas":9793,"HCI":9794,"etsyc":9795,"selacs":9796,"Ġnruter":9797,"Ġyllanif":9798,"sdi":9799,"Ġdessorc":9800,"ĠNC":9801,"ygolohprom":9802,"CKP":9803,"Ġdesoppo":9804,"ĠenilesaB":9805,"narc":9806,"eropilliM":9807,"Ġetaluceps":9808,"ĠÏĥ":9809,"onan":9810,"Ġuoy":9811,"yloP":9812,"Ġnoisivid":9813,"Ġyllautneve":9814,"IL":9815,"lek":9816,"Ġcitaics":9817,"Ġsyaled":9818,"noloc":9819,"Ġgnireffus":9820,"RES":9821,"Ġdelle":9822,"seirogetac":9823,"ĠRP":9824,"poD":9825,"ĠacieL":9826,"Ġsetartsulli":9827,"SCDt":9828,"ĠMD":9829,"Ġerutangis":9830,"ĠnaS":9831,"ailgnag":9832,"uoL":9833,"robor":9834,"Ġsnoitautis":9835,"gilO":9836,"Ġecnadiug":9837,"DHO":9838,"Ġdepuorg":9839,"Ġamoilg":9840,"boR":9841,"Ġthgieh":9842,"tahpsohp":9843,"itim":9844,"rtibra":9845,"iH":9846,"vni":9847,"Ġsremirp":9848,"ulB":9849,"ATV":9850,"Ġtcetorp":9851,"Ġelbixelf":9852,"Ġevitcaeronummi":9853,"Ġstnemtrapmoc":9854,"imS":9855,"Ġdedi":9856,"noitats":9857,"Ġlanoitroporp":9858,"Ġtcafitra":9859,"Ġsretla":9860,"elbat":9861,"meiS":9862,"reffe":9863,"zilacol":9864,"ĠetihW":9865,"llecxe":9866,"isoped":9867,"Ġlacixel":9868,"Ġsnagele":9869,"ytilauq":9870,"cul":9871,"ĠSUF":9872,"Ġderutcurts":9873,"Ġelbisrever":9874,"ĠDCO":9875,"Ġnoitpecxe":9876,"Ġdioni":9877,"Ġecnecse":9878,"Ġxulfni":9879,"Ġtcerrocni":9880,"Ġgnidloh":9881,"llA":9882,"Ġenituor":9883,"Ġdeppiuqe":9884,"noitatneiro":9885,"Ġatoib":9886,"Ġdesserts":9887,"urf":9888,"MSD":9889,"Ġtneilas":9890,"ireP":9891,"inim":9892,"Ġdeneercs":9893,"Ġesaetorp":9894,"nid":9895,"Ġypocsor":9896,"evitcepsrep":9897,"Ġtnavelerri":9898,"=)":9899,"ĠAH":9900,"dexim":9901,"olbonummi":9902,"muiclac":9903,"Ġemertxe":9904,"Ġstnuocca":9905,"noitatum":9906,"Ġnoitabrutrep":9907,"Ġsnoitarud":9908,"Ġnoitaicossid":9909,"ĠnehC":9910,"Ġylereves":9911,"Ġ65":9912,"ĠecnamrofreP":9913,"tnereffid":9914,"ĠIPP":9915,"detaluclac":9916,"Ġely":9917,"ĠhsilgnE":9918,"ylevitanretlA":9919,"Ġreroop":9920,"Ġdetcejorp":9921,"xom":9922,"ĠnoitalumitS":9923,"tseR":9924,"Ġdesiver":9925,"Ġmotsuc":9926,"dooh":9927,"Ġnoisulcnoc":9928,"Ġgnilaever":9929,"Ġcitylo":9930,"Ġsevres":9931,"ylgnis":9932,"Ġnoitcnujnoc":9933,"Ġnoitazidirbyh":9934,"tg":9935,"Ġ15":9936,"Ġlativ":9937,"osrod":9938,"Ġnoitatnalpmi":9939,"Ġsnoitisnart":9940,"ĠyromeM":9941,"SON":9942,"cnurt":9943,"CSID":9944,"uaT":9945,"nnuD":9946,"Ġsutarappa":9947,"Ġscihte":9948,"roppuS":9949,"sedis":9950,"Ġad":9951,"noitacifissalc":9952,"tcer":9953,"Ġespaler":9954,"Ġlairetcab":9955,"Ġelib":9956,"paz":9957,"sda":9958,"esruoc":9959,"isaef":9960,"RB":9961,"ĠOS":9962,"ytub":9963,"Ġsisyla":9964,"serudecorp":9965,"âĢ¦":9966,"Ġdetcepxenu":9967,"0002":9968,"Ġsedocne":9969,"inorrefnoB":9970,"Ġnroh":9971,"dnatS":9972,"XOC":9973,"Ġegaenil":9974,"ĠHAS":9975,"noitaived":9976,"enilced":9977,"luciter":9978,"Ġtnadixoitna":9979,"Ġmetromtsop":9980,"Ġevitareneg":9981,"Ġnoitazinagroer":9982,"Ġtnei":9983,"ortsag":9984,"ain":9985,"nefed":9986,"Ġxobloot":9987,"ĠyrotarobaL":9988,"melborp":9989,"esiwekiL":9990,"ecnatsid":9991,"deilppa":9992,"Ġgnittolb":9993,"Ġsromut":9994,"Ġcitebaid":9995,"ĠOP":9996,"ota":9997,"Ġrecart":9998,"rbif":9999,"Ġnoisulc":10000,"iverb":10001,"Ġtnetsisnocni":10002,"Ġssi":10003,"Ġdettod":10004,"Ġdezinorhcnys":10005,"Ġladona":10006,"ĠFFLA":10007,"yltnecer":10008,"WP":10009,"Ġecnarelot":10010,"tide":10011,"ĠlareneG":10012,"ĠecnedivE":10013,"Ġlanimegirt":10014,"Ġmrofosi":10015,"Ġdimsalp":10016,"ĠSRINf":10017,"Ġegavaelc":10018,"eciohc":10019,"Ġsisot":10020,"poib":10021,"dlof":10022,"trapsa":10023,"Ġedosipe":10024,"pb":10025,"Ġgnikool":10026,"SV":10027,"dils":10028,"Ġ14":10029,"Ġnoitcefsnart":10030,"ttim":10031,"Ġdetomorp":10032,"sselehtenoN":10033,"Ġnoissergga":10034,"ste":10035,"lped":10036,"ffacs":10037,"Ġycneulf":10038,"loP":10039,"600":10040,"roH":10041,"regnif":10042,"Ġgal":10043,"Ġyltnereffid":10044,"noitseuQ":10045,"ĠeH":10046,"Ġ.)âĢĿ":10047,"Ġyevrus":10048,"ĠtludA":10049,"Ġlaitapsousiv":10050,"ĠMB":10051,"toB":10052,"yreve":10053,"DAN":10054,"rm":10055,"Ġetoned":10056,"Ġeugra":10057,"Ġdeucser":10058,"tsinogatna":10059,"tulG":10060,"Ġdnim":10061,"roborroc":10062,"Ġgninifed":10063,"ĠBERC":10064,"Ġdelbane":10065,"ĠnoitaralceD":10066,"neht":10067,"Ġsnoitcarf":10068,"luremolg":10069,"Ġsecnetnes":10070,"Ġetacilper":10071,"vrah":10072,"ĠsCSN":10073,"Ġ0002":10074,"Ġytimixorp":10075,"retu":10076,"Ġgnisa":10077,"hpar":10078,"Ġdezisehtnys":10079,"knahS":10080,"Ġgniman":10081,"ĠlCgM":10082,"ycirep":10083,"Ġredaorb":10084,"situA":10085,"Ġyberehw":10086,"Ġyportne":10087,"nnaps":10088,"Ġecneics":10089,"noitcelloc":10090,"ssem":10091,"noitacidem":10092,"ĠelpmaxE":10093,"Ġymotana":10094,"ailg":10095,"FT":10096,"Ġhsid":10097,"Ġsetasyl":10098,"getni":10099,"Ġeniv":10100,"ĠecruoS":10101,"ĠtahW":10102,"hports":10103,"Ġatoiborcim":10104,"ĠtnerruC":10105,"suM":10106,"Ġsreetnulov":10107,"Ġiroirp":10108,"ugibma":10109,"Ġkool":10110,"Ġseiroeht":10111,"Ġdegnahcnu":10112,"ĠRG":10113,"stnairav":10114,"ĠUdrB":10115,"selcric":10116,"Ġdetanidrooc":10117,"sdoirep":10118,"Ġgnitibihxe":10119,"VID":10120,"Ġdednetta":10121,"tm":10122,"Ġffotuc":10123,"ĠCT":10124,"pmorp":10125,"deredisnoc":10126,"Ġhtruof":10127,"Ġralucric":10128,"ĠNMM":10129,"erehW":10130,"Ġnoitelpmoc":10131,"Ġsuonorhcnys":10132,"ĠJegamI":10133,"Ġlanoitavitom":10134,"Ġseiradnuob":10135,"ilpmoc":10136,"Ġlanolc":10137,"Ġsnoitatsefinam":10138,"Ġamede":10139,"NOC":10140,"acco":10141,"refi":10142,"Ġgnitu":10143,"setam":10144,"peco":10145,"Ġnob":10146,"bif":10147,"ĠcinorhC":10148,"fniap":10149,"Ġtnanimoderp":10150,"elihw":10151,"mehC":10152,"noitacifi":10153,"Ġsebircsed":10154,"Ġstcaretni":10155,"ĠZS":10156,"Ġnoitam":10157,"uqeS":10158,"lacit":10159,"ĠegA":10160,"Ġdedlof":10161,"Ġdnik":10162,"desolc":10163,"detaler":10164,"Ġetatcal":10165,"Ġnoissucsid":10166,"enigne":10167,"Ġsero":10168,"Ġekilnu":10169,"Ġscitam":10170,"tsir":10171,"Ġnoitartlifni":10172,"Ġsnib":10173,"Ġtahwemos":10174,"800":10175,"tab":10176,"zit":10177,"dnopserroc":10178,"Ġstnemnorivne":10179,"ĠlCaC":10180,"sdnab":10181,"Ġnoitanileymed":10182,"siretsa":10183,"Ġlatnemirted":10184,"Ġstibihxe":10185,"Ġgnitcennoc":10186,"ĠmsirP":10187,"camrahP":10188,"ygetarts":10189,"MV":10190,"Ġsesaib":10191,"Ġylluferac":10192,"noitingocer":10193,"ĠtsoP":10194,"Ġdniheb":10195,"tluda":10196,"gniv":10197,"Ġgnicilps":10198,"ffu":10199,"simmoc":10200,"noitareneged":10201,"Ġlautpecnoc":10202,"nelps":10203,"SBT":10204,"ĠscitsitatS":10205,"rea":10206,"ĠekilnU":10207,"aS":10208,"erap":10209,"ĠGFI":10210,"AV":10211,"Ġdedrager":10212,"cullah":10213,"sCG":10214,"Ġbuh":10215,"Ġsmialc":10216,"Ġcipoto":10217,"Ġswollof":10218,"Ġnoitarelecca":10219,"lbuP":10220,"Ġygolodohtem":10221,"Ġovon":10222,"LCXC":10223,"Ġdetatilicaf":10224,"drow":10225,"Ġydo":10226,"Ġdetarelecca":10227,"setirdned":10228,"-(":10229,"Ġetamirp":10230,"Ġmrofevaw":10231,"retnuocne":10232,"lai":10233,"Ġslexip":10234,"lsrevoc":10235,"Ġnoitcartnoc":10236,"Ġecnegilletni":10237,"Ġsevita":10238,"Ġyrrac":10239,"rutas":10240,"sion":10241,"TDE":10242,"Ġig":10243,"tnedneped":10244,"sumalahtopyh":10245,"lubutorcim":10246,"ĠsNM":10247,"Ġgnibircsed":10248,"mro":10249,"ĠaD":10250,"Ġdehs":10251,"ĠtuB":10252,"Ġyrosnesitlum":10253,"Ġesoohc":10254,"ĠecneicS":10255,"aB":10256,"Ġstesbus":10257,"Ġseitilibaborp":10258,"PSH":10259,"zne":10260,"Ġpb":10261,"SOR":10262,"Ġsenot":10263,"Ġegahporcam":10264,"htrow":10265,"Ġgnitae":10266,"htaM":10267,"Ġsnoitalupinam":10268,"Ġgniledomer":10269,"itse":10270,"Ġemehcs":10271,"ĠâĦ":10272,"buh":10273,"laretal":10274,"yhporta":10275,"flesti":10276,"mmargorp":10277,"Ġgninetsil":10278,"Ġyrotca":10279,"enoz":10280,"Ġnicotyxo":10281,"Ġgnitnuocca":10282,"Ġnoisufreper":10283,"snoitacol":10284,"denimreted":10285,"Ġgnidivid":10286,"Ġgniso":10287,"Ġrewsna":10288,"Ġsuclus":10289,"Ġgnithgilhgih":10290,"Ġyltneiciffus":10291,"Ġsuoires":10292,"Ġdeniartsnoc":10293,"Ġezingocer":10294,"ĠnoitaicossA":10295,"Ġrettel":10296,"Ġdetaly":10297,"yxoed":10298,"tlu":10299,"ĠnehT":10300,"Ġsrotacidni":10301,"Ġsuenucerp":10302,"Ġtnatanrepus":10303,"xnA":10304,"Ġgnitniop":10305,"ECAB":10306,"Ġdehtooms":10307,"TRIS":10308,"deriap":10309,"700":10310,"poT":10311,"Ġnoitazilareneg":10312,"weL":10313,"Ġenicylg":10314,"imedi":10315,"olpah":10316,"noitceles":10317,"esle":10318,"Ġdepyt":10319,"Ġnoitautibah":10320,"Ġcissalc":10321,"ciderP":10322,"ocitrococulg":10323,"mret":10324,"perts":10325,"#&-":10326,"Ġylesrev":10327,"eussi":10328,"namrep":10329,"Ġsetad":10330,"Ġnego":10331,"ĠrehtehW":10332,"Ġevitatilauq":10333,"392":10334,"ĠVC":10335,"yte":10336,"Ġstnemgarf":10337,"Ġnoitacifilpma":10338,"Ġtim":10339,"kraM":10340,"hcihw":10341,"Ġxetrocoen":10342,"Ġxam":10343,"Ġsriapmi":10344,"Ġtolip":10345,"ĠRNS":10346,"seires":10347,"uL":10348,"Ġenimatehpma":10349,"ĠsV":10350,"wolley":10351,"zilareneg":10352,"Ġcitsiugnil":10353,"ileht":10354,"noisserger":10355,"dedeen":10356,"ĠtfeL":10357,"evruc":10358,"Ġdnuoforp":10359,"Ġlamrof":10360,"Ġgniyfidom":10361,"Ġnoitasnepmoc":10362,"noitammalfnioruen":10363,"htob":10364,"ĠytivitcA":10365,"ĠSO":10366,"Ġnevorp":10367,"ĠtkA":10368,"Ġstneduts":10369,"Ġylwols":10370,"stnemurtsnI":10371,"roiretsop":10372,"Ġytreporp":10373,"0202":10374,"toP":10375,"ertnoM":10376,"ixna":10377,"Ġelbatciderp":10378,"desse":10379,"evnoc":10380,"Ġnoitazimitpo":10381,"teY":10382,"Ġnilubut":10383,"yltsaL":10384,"mE":10385,"ĠIN":10386,"itnev":10387,"Ġtsli":10388,"Ġenorp":10389,"PFGE":10390,"Ġyltceridni":10391,"Ġylpmi":10392,"Ġnoissimda":10393,"Ġralucsumoruen":10394,"suriv":10395,"Ġyrotcarfer":10396,"Ġsnoigerbus":10397,"Ġsisohcysp":10398,"Ġstsoc":10399,"noitazinagro":10400,"Ġemitefil":10401,"Ġylp":10402,"utitsbus":10403,"tcepxe":10404,"Ġ88":10405,"Ġlaedi":10406,"Ġcixat":10407,"Ġsuoenatuc":10408,"otyC":10409,"Ġyfidom":10410,"921":10411,"iru":10412,"Ġdecnedive":10413,"Ġdevlossid":10414,"eugitaf":10415,"ssapmocne":10416,"IV":10417,"Ġylerar":10418,"otpmysa":10419,"gnole":10420,"Ġtnellecxe":10421,"ytnewT":10422,"Ġlaico":10423,"glana":10424,"rohs":10425,"Ġerutcnupuca":10426,"cilpud":10427,"ĠDNA":10428,"kael":10429,"gnikam":10430,"Mh":10431,"Ġcimim":10432,"seirotarobaL":10433,"ĠKU":10434,"Ġ884":10435,"yroeht":10436,"Ġ,âĢĻ":10437,"sedon":10438,"Ġytilibis":10439,"ĠlaitapS":10440,"yticificeps":10441,"tE":10442,"Ġmut":10443,"Ġselur":10444,"lliM":10445,"yhtapo":10446,"laveirter":10447,"hcraeseR":10448,"Ġgnipp":10449,"Ġ25":10450,"nepsus":10451,"yticixot":10452,"deli":10453,"yltnatropmi":10454,"denimaxe":10455,"Ġehs":10456,"Ġdeniltuo":10457,"noitalyrohpsohp":10458,"Ġcilosotyc":10459,"Ġderised":10460,"hcots":10461,"miceps":10462,"Ġsetareneg":10463,"rbiv":10464,"Ġsli":10465,"Ġcirtne":10466,"lacsemit":10467,"Ġytivisuffid":10468,"ĠenoN":10469,"ĠesahP":10470,"Ġdezirogetac":10471,"raluger":10472,"Ġmohw":10473,"utpecnoc":10474,"Ġcimsalp":10475,"mah":10476,"selucelom":10477,"ifidom":10478,"Ġdor":10479,"Ġredrob":10480,"sned":10481,"Ġenilohclyteca":10482,"elpoep":10483,"Ġmrofsnart":10484,"cnl":10485,"ĠNCS":10486,"Ġraeni":10487,"uF":10488,"Ġnoitcirtser":10489,"ivom":10490,"Ġylticilpxe":10491,"semulov":10492,"Ġysp":10493,"Ġderetsulc":10494,"suser":10495,"diM":10496,"Ġyldaorb":10497,"snoitallicso":10498,"Ġsebol":10499,"niuq":10500,"Ġselpicnirp":10501,"SBD":10502,"krad":10503,"pmylO":10504,"Ġsciteneg":10505,"Ġsreffid":10506,"cab":10507,"Ġdnuor":10508,"ĠgninraeL":10509,"Ġnoitatne":10510,"palrevo":10511,"iborcim":10512,"opyH":10513,"Ġyllacitamard":10514,"ideM":10515,"Ġcidoirep":10516,"ytilibasid":10517,"luC":10518,"PV":10519,"Ġsmargorp":10520,"ĠDR":10521,"Ġona":10522,"Ġeyd":10523,"negitna":10524,"ĠâĢľ":10525,"Ġderotser":10526,"Ġkcen":10527,"etihw":10528,"Ġyhtaporuen":10529,"erusaeM":10530,"Ġetomer":10531,"ĠNueN":10532,"ĠnoitceS":10533,"Ġgnisirprus":10534,"Ġsnmuloc":10535,"laM":10536,"ĠTI":10537,"Ġyrettab":10538,"Ġettepip":10539,"ĠciteneG":10540,"ĠsuhT":10541,"negie":10542,"Ġsevig":10543,"dyh":10544,"seye":10545,"Ġlaitnenopxe":10546,"cseroulF":10547,"Ġerawa":10548,"ĠTAD":10549,"itro":10550,"ymA":10551,"daR":10552,"epoc":10553,"Ġcibmi":10554,"ĠPrP":10555,"hpargopot":10556,"sekips":10557,"Ġlailehtipe":10558,"erutluc":10559,"NTS":10560,"leB":10561,"cp":10562,"Ġyllatnemirepxe":10563,"Ġyltneiciffe":10564,"Ġnoitauqe":10565,"Ġnoitatupmoc":10566,"Ġsisorcen":10567,"Ġsweiver":10568,"Ġstxetnoc":10569,"Ġyrts":10570,"Ġnoitaidar":10571,"ĠrehgiH":10572,"zaid":10573,"tceps":10574,"011":10575,"Ġ75":10576,"rednU":10577,"sgnittes":10578,"Ġevitamrofni":10579,"htnys":10580,"lateirap":10581,"lihp":10582,"tnevnI":10583,"hgieh":10584,"citsi":10585,"Ġdennacs":10586,"Ġedicius":10587,"Ġrovaf":10588,"ĠigloG":10589,"lahpec":10590,"ekil":10591,"Ġcihtapo":10592,"noitaulave":10593,"Ġsnosrep":10594,"Ġlacigolohtaporuen":10595,"ortin":10596,"652":10597,"esop":10598,"Ġseirujni":10599,"ĠevitaleR":10600,"Ġsnrecnoc":10601,"Ġgnimmargorp":10602,"Ġyar":10603,"Ġpord":10604,"Ġlavral":10605,"Ġselcric":10606,"Ġcitsongorp":10607,"Ġeettimmoc":10608,"ĠtnemtrapeD":10609,"Ġyportosina":10610,"Ġenitexo":10611,"ĠIA":10612,"Ġdliub":10613,"Ġenivob":10614,"reteh":10615,"tcerroc":10616,"Ġycnangerp":10617,"nematup":10618,"Ġelinevuj":10619,"timiL":10620,"Ġytlevon":10621,"ĠuiL":10622,"ĠneewteB":10623,"Ġaru":10624,"TNI":10625,"erA":10626,"Ġdengis":10627,"Ġdetcetorp":10628,"Ġsrap":10629,"debircsed":10630,"CUA":10631,"ora":10632,"ĠcihpargomeD":10633,"rehtruf":10634,"Ġnoitcidda":10635,"yrogetac":10636,"Ġylevitat":10637,"oidua":10638,"fos":10639,"aW":10640,"moor":10641,"nav":10642,"ey":10643,"Ġtnemhcatta":10644,"hcara":10645,"ĠÃ":10646,"ĠKPAM":10647,"Ġmsihpromylop":10648,"Ġetav":10649,"Ġnoitazitisnes":10650,"Ġ58":10651,"ĠlairetaM":10652,"cefrep":10653,"Ġler":10654,"tibil":10655,"Ġdetrevni":10656,"tnep":10657,"stnatum":10658,"ĠMÂµ":10659,"nier":10660,"sisehtnys":10661,"Ġlapmacoppiharap":10662,"Ġlufniap":10663,"Ġdetarepo":10664,"Ġsnoitamrof":10665,"noitaludom":10666,"Ġtsefinam":10667,"rI":10668,"eneG":10669,"wdrah":10670,"sdleif":10671,"yrtsimehc":10672,"Ġsrednopser":10673,"noitap":10674,"Ġylraenil":10675,"Ġsren":10676,"tsalbo":10677,"isrevortnoc":10678,"edortcele":10679,"INM":10680,"Ġgnitepmoc":10681,"naJ":10682,"gohtro":10683,"Ġylesicerp":10684,"Ġdetros":10685,"tirret":10686,"Ġegnahcxe":10687,"IMB":10688,"psni":10689,"ĠeeL":10690,"ĠTCE":10691,"Ġemag":10692,"issalC":10693,"elor":10694,"Ġecnats":10695,"ilehtipe":10696,"rete":10697,"taeh":10698,"XT":10699,"Ġllac":10700,"(-":10701,"enimapod":10702,"cepsus":10703,"Ġdeniater":10704,"ĠDSP":10705,"PSI":10706,"ĠÎ¸":10707,"nutrof":10708,"Ġyfissalc":10709,"cesni":10710,"Ġloohcs":10711,"noitacilppa":10712,"ĠeviF":10713,"nahceM":10714,"teled":10715,"TAC":10716,"Ġssecxe":10717,"Ġswor":10718,"ĠBM":10719,"Ġtpursid":10720,"ĠrevO":10721,"ĠDAF":10722,"ĠdednetxE":10723,"ylevitcelloC":10724,"Ġselella":10725,"utip":10726,"nitca":10727,"ĠÎ»":10728,"detceffa":10729,"AI":10730,"CB":10731,"ĠrotceV":10732,"ocS":10733,"ffiD":10734,"pmA":10735,"sisatsoemoh":10736,"goL":10737,"Ġsthgil":10738,"Ġralucisev":10739,"ubirtsiD":10740,"dik":10741,"ĠEP":10742,"noitcarf":10743,"Â±(":10744,"Ġlausu":10745,"un":10746,"irbmaC":10747,"Ġ67":10748,"Ġlacorpicer":10749,"xaP":10750,"derusaem":10751,"Ġnworg":10752,"ĠsCPO":10753,"ĠnoitauqE":10754,"ĠesnopseR":10755,"Ġstneisnart":10756,"ĠlaertnoM":10757,"Ġdessap":10758,"Ġnoisnetrepyh":10759,"liS":10760,"leef":10761,"gnelevaw":10762,"gaoc":10763,"Ġgnisserp":10764,"nicullah":10765,"Ġlanoisel":10766,"Ġlliks":10767,"DTF":10768,"ĠneerG":10769,"sezis":10770,"Ġecnalabmi":10771,"Ġetaitini":10772,"Ġenircodne":10773,"cats":10774,"snoitnevretni":10775,"Ġnilu":10776,"DIRR":10777,"Ġtnemgarf":10778,"Ġsetamirp":10779,"repsid":10780,"Ġevitcepserri":10781,"Ġsesruoc":10782,"Ġtieb":10783,"ĠPAM":10784,"htrib":10785,"Ġgniyalpsid":10786,"teixnA":10787,"Ġteem":10788,"Ġgniretla":10789,"Ġylbaredisnoc":10790,"artnI":10791,"Ġyleritne":10792,"ĠHL":10793,"sG":10794,"Ġsrem":10795,"tnegam":10796,"Ġelcric":10797,"Ġgnidnecsa":10798,"ĠsNI":10799,"Ġnegitna":10800,"Ġyalpretni":10801,"Ġhcope":10802,"ĠOACM":10803,"ecnalab":10804,"dc":10805,"Ġlatnemurtsni":10806,"Ġgola":10807,"temaraP":10808,"ĠMERN":10809,"vE":10810,"uC":10811,"Ġsnoitaludom":10812,"Ġelbmesne":10813,"Ġtisiv":10814,"Ġsmsihpromylop":10815,"bolG":10816,"Ġ652":10817,"sruoh":10818,"ĠDG":10819,"rekram":10820,"siti":10821,"xis":10822,"Ġfitom":10823,"weN":10824,"oCE":10825,"Ġekove":10826,"ITD":10827,"ĊĊĠĠĠĠĊ":10828,"Ġyranoitulove":10829,"rettacs":10830,"Ġyllani":10831,"Ġak":10832,"Ġytilibat":10833,"snacs":10834,"Ġylevissergorp":10835,"Ġlacitcarp":10836,"detimil":10837,"ĠPN":10838,"Ġsibannac":10839,"Ġgnika":10840,"ACP":10841,"neP":10842,"TULGV":10843,"waD":10844,"snoitartnecnoc":10845,"nurt":10846,"Ġainotsyd":10847,"ĠailgorciM":10848,"gerb":10849,"sepytbus":10850,"cO":10851,"cb":10852,"laB":10853,"Ġsdnagil":10854,"CFO":10855,"Ġ)+(":10856,"htra":10857,"Ġsnoitcnuj":10858,"Ġlait":10859,"hgit":10860,"seitilamronba":10861,"Ġsepahs":10862,"inarc":10863,"Ġeldnips":10864,"Ġycnapercsid":10865,"cimim":10866,"Ġytilibani":10867,"erT":10868,"ycneiciffe":10869,"niv":10870,"veD":10871,"Ġegreme":10872,"ĠhCA":10873,"ĠFRC":10874,"Ġtnelis":10875,"ĠyweL":10876,"Ġyrateid":10877,"railimaf":10878,"Ġserauqs":10879,"lÎ¼":10880,"oryht":10881,"slaitnetop":10882,"ihtil":10883,"Ġsrepap":10884,"dednah":10885,"Ġtnerehni":10886,"Ġlacitamehtam":10887,"Am":10888,"Ġyllanigiro":10889,"noisufrep":10890,"081":10891,"RFG":10892,"Ġserutangis":10893,"ĠnaV":10894,"Ġderauqs":10895,"Ġdednetni":10896,"ĠthgiR":10897,"NIP":10898,"noitarepo":10899,"naidem":10900,"Ġgnisira":10901,"Ġgnide":10902,"Ġnoitazilaretal":10903,"ĠZVS":10904,"Ġretsa":10905,"elet":10906,"ze":10907,"Ġetunim":10908,"Ġstpmetta":10909,"gnidnib":10910,"Ġgnicna":10911,"irf":10912,"dradnats":10913,"irG":10914,"otnoc":10915,"riC":10916,"ppalrevo":10917,"lovnoc":10918,"Ġ392":10919,"tireh":10920,"sib":10921,"Ġsniag":10922,"Ġecnanimod":10923,"ĠdoolB":10924,"ANRm":10925,"Ġnort":10926,"neitap":10927,"marcs":10928,"aelc":10929,"porp":10930,"Ġtnatsid":10931,"sseni":10932,"Ġevitpecoirporp":10933,"ttimretni":10934,"Ġgnitide":10935,"Ġretem":10936,"soF":10937,"tsyrc":10938,"Ġgnilbane":10939,"Ġlartnecerp":10940,"elipE":10941,"banna":10942,"Ġnoitatnalpsnart":10943,"Ġenoretsocitroc":10944,"Ġnoitcnitsid":10945,"ilG":10946,"Ġmuirb":10947,"Ġralullecbus":10948,"Ġlacitrocomalaht":10949,"ĠmsituA":10950,"cniz":10951,"gnitnuH":10952,"xeh":10953,"Ġdesrodne":10954,"yrotsih":10955,"detceted":10956,"som":10957,"uoD":10958,"drawrof":10959,"Ġdelacs":10960,"Ġdetaicossid":10961,"UP":10962,"uom":10963,"Ġdevorp":10964,"Ġepa":10965,"ĠcitpanyS":10966,"Ġdibromoc":10967,"Ġsnoitadnemmocer":10968,"lpirt":10969,"Ġdehsiugnitsid":10970,"negohtap":10971,"tnW":10972,"itoelcu":10973,"Ġgnivig":10974,"Ġ.âĢĿ":10975,"Ġegarevoc":10976,"rebmem":10977,"Ġgnizilitu":10978,"lpicsid":10979,"pleh":10980,"SO":10981,"Ġtrevo":10982,"NG":10983,"Ġgnisse":10984,"siarppa":10985,"gnittes":10986,"ĠTTH":10987,"Ġnoitatipicerp":10988,"stnerruc":10989,"Ġlanoitacude":10990,"dnopser":10991,"ĠetucA":10992,"gitsevnI":10993,"Ġeciv":10994,"siderp":10995,"VH":10996,"palloc":10997,"Ġderarfni":10998,"Ġcitem":10999,"sgiF":11000,"aisehtsena":11001,"retlA":11002,"Ġetilobatem":11003,"ĠBO":11004,"aixopyh":11005,"ĠAPH":11006,"Ġtigid":11007,"gnin":11008,"Ġdey":11009,"Ġ36":11010,"Ġsrotaluger":11011,"yhparg":11012,"GFI":11013,"Ġsevird":11014,"Ġyrotammalfnioruen":11015,"nitoib":11016,"Ġranalp":11017,"oidar":11018,"tsinoga":11019,"pp":11020,"ĠNM":11021,"YN":11022,"ledi":11023,"Ġsroloc":11024,"noitaraperp":11025,"erutaef":11026,"smetsyS":11027,"ĠsCM":11028,"llif":11029,"Ġlainarc":11030,"Ġetatrapsa":11031,"etaredom":11032,"ĠHO":11033,"racsid":11034,"ĠFGN":11035,"Ġnoteleks":11036,"Ġfd":11037,"ĠTE":11038,"Ġaixata":11039,"Ġetasnepmoc":11040,"deerf":11041,"engaM":11042,"Ġthgit":11043,"Ġtcudnoc":11044,"romert":11045,"Ġesora":11046,"taihcysp":11047,"setu":11048,"decuder":11049,"Ġesaly":11050,"tisiv":11051,"noitag":11052,"OMN":11053,"Ġdda":11054,"strohoc":11055,"airdnohcotim":11056,"Ġtsedom":11057,"Ġ008":11058,"PO":11059,"dlim":11060,"Ġnoitagerges":11061,"get":11062,"ĠPSPE":11063,"CFPLD":11064,"Ġmreterp":11065,"ĠsaerehW":11066,"Ġnoitalucric":11067,"Ġezilacol":11068,"Ġelbakramer":11069,"Ġgnimmiws":11070,"ĠrebmuN":11071,"lairetam":11072,"noisnetrepyh":11073,"worB":11074,"niagA":11075,"Ġymoto":11076,"Ġdednopserroc":11077,"setebaid":11078,"otset":11079,"nega":11080,"âĨĴ":11081,"Ġeman":11082,"Ġecudortni":11083,"Ġcirtemmysa":11084,"Ġsnoitabrutrep":11085,"ocamrahp":11086,"gnitide":11087,"oropmet":11088,"Ġenohp":11089,"snoitalerroc":11090,"ĠssorcA":11091,"htdiw":11092,"Ġytilibom":11093,"cartxE":11094,"ĠaDk":11095,"Ġgnitargetni":11096,"Ġsdaeb":11097,"cilloc":11098,"obmorht":11099,"Ġnoitacolsnart":11100,"Ġsremogilo":11101,"uel":11102,"etahpsohp":11103,"Ġpirg":11104,"tfeL":11105,"nog":11106,"Ġlanim":11107,"Ġik":11108,"snoitavresbo":11109,"mS":11110,"xam":11111,"lasuora":11112,"Ġgnicneulfni":11113,"Ġetuor":11114,"Ġdellebal":11115,"ĠPSP":11116,"citam":11117,"ycnetal":11118,"Ġtiebla":11119,"Ġsunim":11120,"ĠMBG":11121,"Ġgnitfihs":11122,"Ġdedecerp":11123,"Ġevitag":11124,"xon":11125,"purretni":11126,"tnI":11127,"Ġblub":11128,"thgiR":11129,"Ġcihporto":11130,"borP":11131,"Ġlacimotanaoruen":11132,"Ġseigolohtap":11133,"Ġsetyconom":11134,"lamroN":11135,"cepsorp":11136,"noxa":11137,"Ġsselnu":11138,"laicos":11139,"deriuqer":11140,"Ġetelpmocni":11141,"riK":11142,"vaeh":11143,"Ġnoitasnes":11144,"sylo":11145,"hR":11146,"Ġdnamed":11147,"Ġtnemtaerterp":11148,"siv":11149,"ĠMVS":11150,"Ġmrofni":11151,"Ġsamo":11152,"ĠDK":11153,"Ġkramllah":11154,"Ġanera":11155,"irtS":11156,"meD":11157,"Ġlarutcurtsorcim":11158,"revel":11159,"Ġnrobwen":11160,"tipacer":11161,"tnecse":11162,"ualc":11163,"sT":11164,"Ġgnidlof":11165,"pmexe":11166,"Ġladon":11167,"ĠraB":11168,"Ġevisnetni":11169,"lifo":11170,"segahporcam":11171,"ĠcrA":11172,"Ġlanoitavresbo":11173,"Ġyldetaeper":11174,"taw":11175,"Ġrevocer":11176,"noitargetni":11177,"Ġ.))":11178,"erofa":11179,"Ġhtworgtuo":11180,"teN":11181,"vitnel":11182,"ĠqeS":11183,"Ġhctamsim":11184,"ffuhs":11185,"Bd":11186,"Ġ94":11187,"Ġstuo":11188,"mroftalp":11189,"Ġniso":11190,"Ġsnaicinilc":11191,"Ġsisylo":11192,"Ġtpada":11193,"trev":11194,"Ġlacigolopot":11195,"nimullI":11196,"Ġgnitaerc":11197,"noisuffid":11198,"yD":11199,"Ġerotser":11200,"Ġcirtin":11201,"emas":11202,"Ġnar":11203,"Ġnap":11204,"snosaer":11205,"aen":11206,"detacidni":11207,"Ġdetailiffa":11208,"Ġnoitcetorporuen":11209,"Ġshtgnerts":11210,"naelc":11211,"ĠsetutitsnI":11212,"Ġnitpel":11213,"ĠsNSM":11214,"nielcunys":11215,"uR":11216,"ĠEL":11217,"ĠeD":11218,"Ġdeman":11219,"gnicne":11220,"Ġgnitatilicaf":11221,"Ġgnisserpxerevo":11222,"retemarap":11223,"Ġnoitanimulli":11224,"***":11225,"006":11226,"ĠilumitS":11227,"Ġcinegoruen":11228,"NCS":11229,"Ġnoitapicitna":11230,"KI":11231,"tisop":11232,"niartne":11233,"Ġepocs":11234,"Ġterpretni":11235,"larutan":11236,"Ġsnoruenotom":11237,"Ġsnoitazila":11238,"Ġnaiv":11239,"Ġgnitros":11240,"oci":11241,"frN":11242,"Ġcitohcyspitna":11243,"xorp":11244,"balonummi":11245,"coni":11246,"Ġdetavitom":11247,"Ġecnegrevnoc":11248,"IIKMaC":11249,"fretni":11250,"Ġrob":11251,"Ġcigoloruen":11252,"noitacinummoc":11253,"Ġredni":11254,"ĠsnoitatimiL":11255,"Ġsenomroh":11256,"ssam":11257,"Ġgnits":11258,"gnib":11259,"sesahp":11260,"nartni":11261,"Ġevitcani":11262,"rebup":11263,"Ġsru":11264,"Ġapodo":11265,"Ġstsalborbif":11266,"Ġtnemecalper":11267,"slocotorp":11268,"yrotidua":11269,"Ġseica":11270,"yno":11271,"Ġelubut":11272,"Ġlaenotirepartni":11273,"rehta":11274,"Ġrotpecerotohp":11275,"nidro":11276,"ĠsCSPI":11277,"ĠDE":11278,"Ġelbissecca":11279,"ĠZCS":11280,"Ġgnivael":11281,"Ġelubol":11282,"ĠANRhs":11283,"Ġenires":11284,"ĠIP":11285,"ina":11286,"syaw":11287,"ĠlarutcurtS":11288,"netna":11289,"yrota":11290,"Ġnoitazilibats":11291,"soc":11292,"otohP":11293,"Ġsesongaid":11294,"Ġ45":11295,"rotcev":11296,"FB":11297,"Ġgnicalp":11298,"Ġ20":11299,"Ġdetpmetta":11300,"otuA":11301,"roportcele":11302,"PFY":11303,"icerppa":11304,"rela":11305,"tnalpmi":11306,"Ġyhtap":11307,"ĠecnacifingiS":11308,"Ġgnisnes":11309,"niats":11310,"Ġ|":11311,"Ġerefretni":11312,"Ġdetaroprocni":11313,"notalem":11314,"Ġnoitaroire":11315,"latipsoH":11316,"ĠsnemeiS":11317,"Ġtnerehoc":11318,"olg":11319,"uM":11320,"ĠFE":11321,"nalf":11322,"buP":11323,"Ġaino":11324,"Ġesarefi":11325,"Ġnegortse":11326,"ĠRAPMA":11327,"Ġtnemeriuqer":11328,"Ġeriuqca":11329,"rca":11330,"Ġressel":11331,"ĠkcalB":11332,"mrofinu":11333,"ĠCFPmv":11334,"ypocsorcim":11335,"Ġdezilaretal":11336,"seil":11337,"meR":11338,"Ġelbaton":11339,"Ġenilffo":11340,"ĠGAP":11341,"LV":11342,"ĠGA":11343,"filpmis":11344,"niatrec":11345,"RGC":11346,"ĠtsriF":11347,"Ġemotcennoc":11348,"ĠLH":11349,"tnatsni":11350,"CLS":11351,"Ġsuoit":11352,"Ġeert":11353,"ortnec":11354,"repyH":11355,"ĠPD":11356,"ĠraeniL":11357,"udiser":11358,"GEM":11359,"Ġyrd":11360,"Ġgnignoleb":11361,"TO":11362,"Ġdeetnaraug":11363,"ĠONC":11364,"iut":11365,"Ġsnotuob":11366,"elohW":11367,"sf":11368,"sisorelcs":11369,"ĠpoortS":11370,"miler":11371,"Ġgnitamitse":11372,"Ġdenrut":11373,"ĠAI":11374,"Ġtnediser":11375,"grA":11376,"tilibaher":11377,"ecruos":11378,"snoitatneserper":11379,"strap":11380,"Ġdedees":11381,"ĠsirroM":11382,"Ġyrallipac":11383,"Ġcitamehcs":11384,"alu":11385,"bmoC":11386,"Ġnoitanimreted":11387,"CCK":11388,"syassa":11389,"Ġdekcehc":11390,"ydolla":11391,"elihwnaeM":11392,"900":11393,"Ġanemonehp":11394,"rennacs":11395,"ĠTSC":11396,"Ġstuptuo":11397,"snon":11398,"Ġdebirc":11399,"ydaets":11400,"Ġsnoisu":11401,"noitciderp":11402,"egA":11403,"Ġsnagro":11404,"Ġrepeed":11405,"Ġretnemirepxe":11406,"Ġsemosoxe":11407,"Ġytivislupmi":11408,"noitargim":11409,"Ġnh":11410,"ĠAL":11411,"Ġgniziraloped":11412,"Ġyhtapme":11413,"Ġevisseccus":11414,"reF":11415,"Ġdetalp":11416,"krowemarf":11417,"Ġecnavda":11418,"serehpsimeh":11419,"rtnoC":11420,"Ġtrepxe":11421,"lopretni":11422,"snaem":11423,"Ġmiws":11424,"Ġcihprom":11425,"Ġtellep":11426,"rugifnoc":11427,"Ġcitsitats":11428,"Ġenimatulg":11429,"slliks":11430,"Ġyrate":11431,"ĠiANR":11432,"ĠnopU":11433,"Ġsnoitaraperp":11434,"Ġeuqacam":11435,"dnuoF":11436,"Ġcixatoerets":11437,"Ġerif":11438,"Ġdnal":11439,"ICB":11440,"PSIRC":11441,"ezam":11442,"Ġgnitalu":11443,"Ġelbicudni":11444,"ĠelgniS":11445,"Ġgnitceles":11446,"Ġina":11447,"panyS":11448,"Ġselif":11449,"Ġdenoitnemerofa":11450,"Ġlacimehcotsihonummi":11451,"fleS":11452,"Ġlaudarg":11453,"Ġdeugra":11454,"ĠFO":11455,"Ġnoititepmoc":11456,"roba":11457,"UD":11458,"cudnI":11459,"rotinom":11460,"gniwollof":11461,"Ġegrahc":11462,"Ġevitarapmoc":11463,"stiart":11464,"troffe":11465,"ecnerefer":11466,"enif":11467,"ligiv":11468,"ĠEE":11469,"Ġsretlif":11470,"dnuder":11471,"Ġsdnert":11472,"teB":11473,"Ġstpecnoc":11474,"Ġdrawrofdeef":11475,"Ġmsalpotyc":11476,"Ġtsir":11477,"Ġevitareneged":11478,"lacol":11479,"Ġworran":11480,"Ġgnikirts":11481,"Ġsecnamrofrep":11482,"suenucerp":11483,"Ġ87":11484,"Ġnigeb":11485,"yhpargo":11486,"Ġciga":11487,"Ġetanimile":11488,"sreweiver":11489,"Ġdesnir":11490,"Ġsedom":11491,"Ġreffus":11492,"troper":11493,"Ġnoitcepsni":11494,"Ġssertsid":11495,"Ġgnihtaerb":11496,"Ġssentsubor":11497,"Ġsetaler":11498,"Ġnoitaroireted":11499,"tropsnart":11500,"Ġnosni":11501,"onotua":11502,"vresnoc":11503,"ruT":11504,"yticolev":11505,"Ġdetalsnart":11506,"Ġyrau":11507,"Ġdegrem":11508,"Ġcifi":11509,"deniatbo":11510,"ĠevitisoP":11511,"ERP":11512,"vb":11513,"Ġsretropsnart":11514,"Ġsyarra":11515,"Ġyrartibra":11516,"rhp":11517,"SMR":11518,"irbi":11519,"nirep":11520,"Ġerutamerp":11521,"Ġciro":11522,"Ġgnidliub":11523,"lan":11524,"snoitazinagro":11525,"DO":11526,"VN":11527,"Ġnrecnoc":11528,"TRq":11529,"Ġcixotoruen":11530,"snoitcerid":11531,"dehsilbatse":11532,"Ġdedlohserht":11533,"ĠsPA":11534,"ylsuoenat":11535,"Ġdekool":11536,"lppus":11537,"Ġelitrauqretni":11538,"noitcudni":11539,"Ġtsujda":11540,"8102":11541,"erup":11542,"ĠsAVONA":11543,"Ġdlog":11544,"euqinhcet":11545,"Ġdednah":11546,"tnecseloda":11547,"XE":11548,"Ġgolana":11549,"dtL":11550,"ĠteN":11551,"messa":11552,"ehcs":11553,"Ġrotceffe":11554,"ovip":11555,"setunim":11556,"niL":11557,"Ġseicna":11558,"Ġsdnetxe":11559,"motanA":11560,"Ġdetnaw":11561,"margorp":11562,"espanys":11563,"EAE":11564,"ĠsVE":11565,"Ġlatibro":11566,"Ġnoitcurtsnoc":11567,"uqerF":11568,"stnemriapmi":11569,"uol":11570,"Ġnoisi":11571,"editpep":11572,"ĠSNV":11573,"Ġetarbetrev":11574,"Ġmutarts":11575,"Ġscitsi":11576,"Ġ68":11577,"Ġelbaborp":11578,"nihcam":11579,"daert":11580,"Ġ821":11581,"ĠtoN":11582,"Ġnoitarbilac":11583,"cirfA":11584,"cias":11585,"Ġnoitallecrap":11586,"Ġ,)]":11587,"HN":11588,"Ġstniartsnoc":11589,"orelcso":11590,"cilS":11591,"Ġssenlufekaw":11592,"veL":11593,"ĠAO":11594,"noD":11595,"roulF":11596,"lohce":11597,"Ġlacitylana":11598,"Ġnoitceser":11599,"yrrehCm":11600,"ERD":11601,"Ġgnihsilbatse":11602,"noitatpada":11603,"ĠBkrT":11604,"ĠELT":11605,"ĠGG":11606,"Ġylthgit":11607,"seitiladom":11608,"Ġylhguor":11609,"Ġcitsilaer":11610,"Ġsnoitroporp":11611,"pircsnarT":11612,"dnI":11613,"Ġstcartxe":11614,"Ġstrexe":11615,"ĠASM":11616,"Ġyrarbil":11617,"Ġgnidleiy":11618,"paC":11619,"Ġsnoisrev":11620,"Ġsrehtom":11621,"Ġyadyreve":11622,"ĠPR":11623,"eff":11624,"Ġnes":11625,"cidartnoc":11626,"carT":11627,"ĠNA":11628,"thgin":11629,"Ġnoitaidem":11630,"ecart":11631,"hsilbuP":11632,"ohR":11633,"Ġezimitpo":11634,"Ġgnihcnarb":11635,"BO":11636,"ĠMEM":11637,"nitiuqibu":11638,"Ġdrawkcab":11639,"nnam":11640,"ĠssieZ":11641,"Ġyeknod":11642,"Ġsnoisulcni":11643,"Ġsisoilg":11644,"Ġevitamron":11645,"Ġydaets":11646,"taL":11647,"tnetxe":11648,"Ġdedrawer":11649,"Ġetamixorppa":11650,"ĠVRH":11651,"Ġnoitresni":11652,"malif":11653,"seitis":11654,"Ġdrof":11655,"esabatad":11656,"MR":11657,"ĠTP":11658,"RulG":11659,"Ġgninnaps":11660,"ĠsetatS":11661,"tI":11662,"Ġetadpu":11663,"ĠlabolG":11664,"paR":11665,"erohp":11666,"Ġecnerrucer":11667,"Ġgniyolpme":11668,"Ġ1000":11669,"ekatni":11670,"Ġdeifitarts":11671,"esaercni":11672,"ddo":11673,"Ġralop":11674,"leiF":11675,"521":11676,"Ġdetseretni":11677,"tnemtrapmoc":11678,"ĠdraoB":11679,"kcoc":11680,"epahs":11681,"ifitnauq":11682,"Ġsrotide":11683,"Ġsetadidnac":11684,"itcer":11685,"Ġsecrof":11686,"emiT":11687,"Ġeldnub":11688,"dE":11689,"Ġanimal":11690,"Ġliaf":11691,"Ġgnireggirt":11692,"gnidocne":11693,"Ġ66":11694,"fd":11695,"Ġtnemom":11696,"csi":11697,"fif":11698,"oti":11699,"Ġputes":11700,"ereC":11701,"tnemega":11702,"hpro":11703,"iQ":11704,"Ġseriannoitseuq":11705,"ALB":11706,"ohC":11707,"ĠelaM":11708,"nG":11709,"nikomehc":11710,"MÂµ":11711,"Ġdetad":11712,"sisotyco":11713,"ĠSF":11714,"Ġgniyalp":11715,"Ġenegsnart":11716,"egnaro":11717,"Ġtcelgen":11718,"Ġward":11719,"oQ":11720,"idartse":11721,"Ġsuougibma":11722,"Ġdesuf":11723,"Ġdesimorpmoc":11724,"nerappa":11725,"gnirif":11726,"noitatneserper":11727,"vaN":11728,"ĠcitengaM":11729,"stcafitra":11730,"Ġlatovip":11731,"tsiW":11732,"GI":11733,"Ġsnoitacilbup":11734,"elif":11735,"rentrap":11736,"csiv":11737,"ĠPPC":11738,"Ġlanolcylop":11739,"sisenegohtap":11740,"ĠlapmacoppiH":11741,"gahpo":11742,"Ġtsav":11743,"imedipe":11744,"irpruS":11745,"lepip":11746,"Ġnoitcrafni":11747,"Ġgne":11748,"Ġsenoz":11749,"ĠSL":11750,"biG":11751,"omreht":11752,"siuoL":11753,"Ġenibmoc":11754,"cirtsnoc":11755,"Ġsiseht":11756,"ĠLP":11757,"ssec":11758,"Ġevislupmoc":11759,"Ġevired":11760,"Ġdetacilpmoc":11761,"aca":11762,"Ġetaicossa":11763,"ĠFN":11764,"ĠyrtsimehcotsihonummI":11765,"ĠsNS":11766,"lcB":11767,"soprup":11768,"7102":11769,"lF":11770,"Ġygoloisyhportcele":11771,"ffits":11772,"Ġevitidda":11773,"ĠIR":11774,"Ġytpme":11775,"hguo":11776,"SEPEH":11777,"Ġhsu":11778,"lats":11779,"Ġsuoenegomoh":11780,"sen":11781,"secruos":11782,"laH":11783,"tiP":11784,"Ġtseilrae":11785,"levne":11786,"Ġrevird":11787,"Ġrentrap":11788,"Ġdrah":11789,"Ġstaeper":11790,"ĠsCE":11791,"Ġsitilahpecne":11792,"Ġsbmil":11793,"Ġyllacol":11794,"ĠgnidnuF":11795,"ssensuoicsnoc":11796,"hguoht":11797,"Ġetarepo":11798,"oga":11799,"rehtom":11800,"Ġenicidem":11801,"ĠgnigamiorueN":11802,"Ġyllacigoloib":11803,"Ġesuoh":11804,"Ġesrevsnart":11805,"Ġevian":11806,"ecnelav":11807,"ENUT":11808,"ahC":11809,"Ġcidica":11810,"ytivis":11811,"rtC":11812,"Ġesatahpsohp":11813,"Ġnoitaziralop":11814,"Ġsdnoces":11815,"Ġgnitaler":11816,"Ġgnicneirepxe":11817,"Ġerus":11818,"pilohpsohp":11819,"Ġcilahpecne":11820,"Ġdednepsuser":11821,"Ġranimal":11822,"rettu":11823,"Ġlatnemget":11824,"latI":11825,"Ġ,])":11826,"Ġdex":11827,"dimsalp":11828,"Ġeniza":11829,"ĠVMG":11830,"Ġlatem":11831,"ibihnI":11832,"ĠerawtfoS":11833,"soL":11834,"hcnarb":11835,"tnesnoc":11836,"ĠwoL":11837,"ohce":11838,"lyhte":11839,"ĠdnA":11840,"MAC":11841,"031":11842,"ĠyelwaD":11843,"ĠGpC":11844,"nurp":11845,"ĠFA":11846,"ĠNNC":11847,"Ġylralu":11848,"ĠPAC":11849,"TAD":11850,"Ġyranoitats":11851,"tno":11852,"epocsorcim":11853,"Ġytilamron":11854,"eettim":11855,"Ġsetamrettil":11856,"modba":11857,"RV":11858,"ĠnoitacifissalC":11859,"timo":11860,"Ġsksam":11861,"Ġytilibisaef":11862,"Ġemotpircsnart":11863,"Ġeciov":11864,"Ġsrosserger":11865,"Ġsdrocer":11866,"Ġytilibicudorper":11867,"HTEM":11868,"ĠRD":11869,"OACM":11870,"flu":11871,"seipareht":11872,"enalp":11873,"Ġsnoitpmussa":11874,"Ġteletalp":11875,"ĠâĪ":11876,"rig":11877,"Ġreya":11878,"Ġyllacimotana":11879,"Ġsetiruen":11880,"Ġyllaitnesse":11881,"ĠgnilangiS":11882,"ule":11883,"Ġ37":11884,"hportsyd":11885,"ytiladom":11886,"Ġemosammalfni":11887,"galloc":11888,"RPG":11889,"Ġepytdliw":11890,"noitanimaxe":11891,"esanik":11892,"ĠstI":11893,"Ġ85":11894,"Ġ071":11895,"looT":11896,"neva":11897,"Ġdetatum":11898,"6102":11899,"seicne":11900,"BÎº":11901,"naS":11902,"Ġyrehpirep":11903,"eug":11904,"Ġsdradnats":11905,"deR":11906,"Ġcitsahcots":11907,"ORP":11908,"worran":11909,"Ġtrahc":11910,"Ġgnitanretla":11911,"lpmocca":11912,"scitsitats":11913,"opmoced":11914,"Ġdiorets":11915,"snoitseuq":11916,"taeper":11917,"stxetnoc":11918,"Ġlarua":11919,"ĠsediseB":11920,"ĠmiK":11921,"slammam":11922,"Ġyrt":11923,"Ġsrettimsnartoruen":11924,"Ġcirtemmys":11925,"Ġnoitazilacoloc":11926,"drocnoc":11927,"asrev":11928,"ĠÏģ":11929,"Ġrotcartsid":11930,"Ġ081":11931,"ĠsCPN":11932,"Ġrotavitca":11933,"necni":11934,"Ġsuore":11935,"ĠMLG":11936,"Ġdetalumucca":11937,"kiN":11938,"Ġstnemeriuqer":11939,"esuoh":11940,"tneiciffeoc":11941,"Ġ,+":11942,"Ġdetoned":11943,"eniksyd":11944,"#(":11945,"yR":11946,"rmF":11947,"Ġesarefsnart":11948,"namraepS":11949,"ĠOSMD":11950,"piL":11951,"detcelloc":11952,"Ġgnida":11953,"ecnecseloda":11954,"norhcnysa":11955,"Ġrediw":11956,"ytinummoc":11957,"hproM":11958,"Ġsenimreted":11959,"irdnohcotiM":11960,"Ġyllarutan":11961,"sunis":11962,"derolpxe":11963,"Ġsecnereferp":11964,"PIR":11965,"fro":11966,"Ġremirp":11967,"diS":11968,"picer":11969,"enummi":11970,"ticifed":11971,"Ġelbu":11972,"nS":11973,"Ġseog":11974,"Ġcinortcele":11975,"Ġsisotycogahp":11976,"Ġdeziti":11977,"Ġsllaf":11978,"Ġdenethgieh":11979,"lbis":11980,"eniargim":11981,"Ġhtab":11982,"ygahpotua":11983,"Ġsnoitatneserp":11984,"Ġcihtapoidi":11985,"Ġninetac":11986,"Ġcirehpsimehretni":11987,"rutcurts":11988,"Ġepolevne":11989,"Ġezirammus":11990,"Ġserugif":11991,"oediv":11992,"nhcetoiB":11993,"srekramoib":11994,"Ġtrapa":11995,"narraw":11996,"Ġdecifircas":11997,"Ġdeborp":11998,"Ġdevaelc":11999,"Ġgnitanigiro":12000,"amos":12001,"doom":12002,"cesi":12003,"Ġetam":12004,"syeknom":12005,"ÂłÂł":12006,"enimatek":12007,"ciN":12008,"Ġen":12009,"Ġladio":12010,"Ġtnemgduj":12011,"irhtra":12012,"cinilc":12013,"Ġevitseggus":12014,"siR":12015,"dniF":12016,"Ġgnisaeler":12017,"mono":12018,"ĠDEL":12019,"rolpxe":12020,"caR":12021,"Ġmutibil":12022,"iutni":12023,"eks":12024,"noitcidda":12025,"seliforp":12026,"saw":12027,"senips":12028,"neV":12029,"Ġnoitacidni":12030,"Ġdetniop":12031,"usne":12032,"dus":12033,"tehtac":12034,"Ġsrotaludom":12035,"parehT":12036,"Ġlateirapotnorf":12037,"Ġmargotsih":12038,"Ġtnettimretni":12039,"Ġainmosni":12040,"ĠyteixnA":12041,"ĠrewoP":12042,"negnoc":12043,"Ġdetats":12044,"884":12045,"god":12046,"ĠĠĠĊĊĠĠĊ":12047,"oob":12048,"ĠIK":12049,"Ġtol":12050,"Ġsexob":12051,"ĠotamoTdt":12052,"secen":12053,"Ġtnasaelp":12054,"ĠTSS":12055,"detavitca":12056,"Ġsedoc":12057,"Ġcitcat":12058,"Ġgnirut":12059,"Ġesaterces":12060,"ylsuoiverp":12061,"Ġsksir":12062,"Ġdetal":12063,"Ġini":12064,"eseht":12065,"ĠcitsongaiD":12066,"ĠsnoitalerroC":12067,"Ġmrofit":12068,"EDP":12069,"Ġseirtne":12070,"OV":12071,"uqa":12072,"egatnavda":12073,"Ġdeksam":12074,"Ġsuoixon":12075,"Ġsetacilper":12076,"Ġstolb":12077,"NB":12078,"epeR":12079,"Ġlanoitutitsni":12080,"Ġdetsevrah":12081,"Ġcitah":12082,"ESMM":12083,"Ġor":12084,"Ġylfeirb":12085,"Ġegnaro":12086,"dessessa":12087,"leveL":12088,"yletanutrof":12089,"ĠMS":12090,"821":12091,"hcysP":12092,"âĪ¼(":12093,"nitsba":12094,"Ġsuor":12095,"Ġ30":12096,"Ġsuogolana":12097,"Ġnoitcurts":12098,"noitazilacol":12099,"Ġdetalupinam":12100,"Ġevititepmoc":12101,"Ġtnaived":12102,"esoprup":12103,"Ġreifilpma":12104,"Ġelbisa":12105,"Ġgnitsrub":12106,"Ġsuoenatnatsni":12107,"Ġredda":12108,"Ġsuoire":12109,"ĠtnW":12110,"Ġyvaeh":12111,"onrut":12112,"Ġ99":12113,"Ġtaeb":12114,"Ġsesanik":12115,"ralucsav":12116,"Ġdetartnecnoc":12117,"dipe":12118,"Ġnoirp":12119,"Ġcimednap":12120,"reT":12121,"Ġmsyruena":12122,"Ġlaropmetotnorf":12123,"Ġsedaced":12124,"âĢĶ)":12125,"onna":12126,"looc":12127,"cesillim":12128,"ĠhguorhT":12129,"lona":12130,"Ġetaunetta":12131,"ESG":12132,"ivaeh":12133,"Ġgninoit":12134,"Ġnoisrevni":12135,"ĠSG":12136,"nigra":12137,"ĠIPE":12138,"cartnI":12139,"Ġderrefni":12140,"zar":12141,"Ġyhtrow":12142,"Ġyssom":12143,"ĠnoitibihnI":12144,"Ġsrettel":12145,"Ġelbisso":12146,"Ġdenifnoc":12147,"scirtem":12148,"ote":12149,"Ġapodovel":12150,"metsniarb":12151,"AW":12152,"ATG":12153,"ĠnamreG":12154,"ĠsGED":12155,"Ġnoisnet":12156,"Ġ16":12157,"Ġsegrahcsid":12158,"ĠlacofnoC":12159,"ÃŃ":12160,"tt":12161,"tepip":12162,"Ġgnihtooms":12163,"Ġih":12164,"Ġdetcartbus":12165,"Ġyltcaxe":12166,"rel":12167,"ĠaL":12168,"Ġseirtnuoc":12169,"Ġemirp":12170,"ĠsredrosiD":12171,"Ġelubutorcim":12172,"ĠxednI":12173,"ASM":12174,"flus":12175,"Ġsuogolomoh":12176,"CROTm":12177,"Ġciportosi":12178,"racs":12179,"diulf":12180,"stnafni":12181,"Ġllim":12182,"ĠEA":12183,"dicnioc":12184,"Ġdetagergga":12185,"pmusnoc":12186,"losni":12187,"Ġelcirtnev":12188,"ĠAp":12189,"Ġseicarucca":12190,"semoso":12191,"ĠSRP":12192,"Ġezisahpme":12193,"lucilloc":12194,"colla":12195,"dexif":12196,"ĠCSPI":12197,"Ġlanoitceridib":12198,"one":12199,"Ġdetanimile":12200,"hsid":12201,"NDG":12202,"Ġsegac":12203,"Ġssenkaew":12204,"IF":12205,"nilusni":12206,"ĠbH":12207,"sesoprup":12208,"Ġseigolonhcet":12209,"ĠnerdlihC":12210,"loK":12211,"eiD":12212,"âĢĺ(":12213,"Ġgnidrawer":12214,"Ġdetsissa":12215,"Ġytilibommi":12216,"Ġ96":12217,"isnesed":12218,"ĠâĦ¢":12219,"Ġnoitulid":12220,"mona":12221,"Ġnoitatcepxe":12222,"Ġtrop":12223,"evisserped":12224,"lavrap":12225,"Ġshtgnel":12226,"Ġytirailimaf":12227,"recsa":12228,"ĠRB":12229,"Ġsesirpmoc":12230,"illap":12231,"NAP":12232,"Ġlanoitanretni":12233,"Ġesahtnys":12234,"vdA":12235,"argoretna":12236,"dnalreht":12237,"Ġyticixotoruen":12238,"ĠÂ®":12239,"nimdA":12240,"ĠslaudividnI":12241,"noitadilav":12242,"Ġgninialpxe":12243,"Ġezimixam":12244,"ĠgnidnatsrednU":12245,"baG":12246,"ĠsRADMN":12247,"Ġsuidar":12248,"ihtat":12249,"ĠanihC":12250,"Ġ79":12251,"GME":12252,"eliforp":12253,"Ġrohtua":12254,"ffA":12255,"Ġmaeb":12256,"Î©":12257,"Ġyarraorcim":12258,"Ġgnitapicitrap":12259,"Ġnibolg":12260,"Ġslammam":12261,"Ġdirbyh":12262,"ĠISI":12263,"hcna":12264,"ycaciffe":12265,"Ġ,).":12266,"vi":12267,"COR":12268,"ĠCCP":12269,"gniledom":12270,"Ġnicyma":12271,"desaerced":12272,"nc":12273,"Ġgnidaerps":12274,"hcaet":12275,"Ġelbisaef":12276,"ĠSRM":12277,"BGMH":12278,"htyP":12279,"ssenk":12280,"ĠVIH":12281,"ĠtcejorP":12282,"Ġ95":12283,"worb":12284,"ruSeerF":12285,"Ġyletu":12286,"WM":12287,"Ġecnabrutsid":12288,"snoitacilppa":12289,"Ġsnoitcefni":12290,"Ġgninosaer":12291,"notgnitnuH":12292,"Ġnoitalyteca":12293,"Ġtih":12294,"dega":12295,"tsefil":12296,"Ġciseglana":12297,"Ġcitamard":12298,"Ġxa":12299,"Ġis":12300,"Ġllehs":12301,"tipe":12302,"Ġsunimret":12303,"Ġsnoitatcepxe":12304,"Ġetagorrus":12305,"ĠHDPAG":12306,"ĠPTPM":12307,"yticapac":12308,"gnidaer":12309,"telhta":12310,"Ġdennalp":12311,"stnega":12312,"Ġgnitadpu":12313,"Ġyltneisnart":12314,"UdrB":12315,"Ġrotaidem":12316,"Ġhserf":12317,"Ġerawdrah":12318,"ĠDD":12319,"RCC":12320,"Ġlagav":12321,"ĠNP":12322,"dehna":12323,"rehtona":12324,"ylgnisirpruS":12325,"Ġecneiliser":12326,"eruta":12327,"graL":12328,"Ġegasod":12329,"Ġlaidemortnev":12330,"ehr":12331,"ĠPE":12332,"ĠdeilppA":12333,"sM":12334,"niarts":12335,"lyrca":12336,"ĠssertS":12337,"citlum":12338,"meS":12339,"Ã¼M":12340,"Ġyru":12341,"ĠVS":12342,"ohcS":12343,"ĠeulB":12344,"snoitome":12345,"dnalrehteN":12346,"Ġsrob":12347,"Ġdedeecxe":12348,"ĠbaltaM":12349,"ada":12350,"noitpmusnoc":12351,"Ġspleh":12352,"ĠevitageN":12353,"noitaterpretni":12354,"HMW":12355,"Ġenoretsotset":12356,"rebmahc":12357,"cuL":12358,"smgidarap":12359,"ik":12360,"hcuot":12361,"Ġtcennoc":12362,"ĠAPP":12363,"snoitaicossa":12364,"Ġcidaccas":12365,"Ġsisenego":12366,"Ġlasan":12367,"maF":12368,"ĠNE":12369,"Ġgniniat":12370,"Ġsisotycodne":12371,"noitavitom":12372,"Ġkcehc":12373,"aY":12374,"Ġerehwesle":12375,"Ġyrtemotyc":12376,"noitalu":12377,"esuba":12378,"Ġnapsefil":12379,"lacinilc":12380,"srek":12381,"Ġkcabdeeforuen":12382,"sediseB":12383,"otpmyS":12384,"Ġylsuoenatnops":12385,"ĠAKP":12386,"Ġrevresbo":12387,"Ġiks":12388,"hplA":12389,"iuqcA":12390,"aime":12391,"RAPP":12392,"Ġdediced":12393,"Ġtek":12394,"Ġslaog":12395,"510":12396,"soporp":12397,"roco":12398,"Ġrotaludom":12399,"Ġ17":12400,"Ġnoitanimile":12401,"ĠSCAt":12402,"Ġdered":12403,"stcart":12404,"Ġroi":12405,"Ġsreyalp":12406,"neporp":12407,"devlovni":12408,"Ġrell":12409,"Ġninotalem":12410,"ĠekiL":12411,"Ġesnessim":12412,"Ġ18":12413,"Ġdetadpu":12414,"Ġsehcaer":12415,"Ġcitylana":12416,"VD":12417,"taW":12418,"Ġvo":12419,"riV":12420,"Ġlanerda":12421,"Ġylbaton":12422,"run":12423,"fiF":12424,"Ġgnireffid":12425,"etalpmet":12426,"DLOB":12427,"Ġyratenom":12428,"Ġderb":12429,"rehtegotlA":12430,"ytisebo":12431,"Ġytiralop":12432,"yrassecen":12433,"ĠSRDPU":12434,"Ġgnirahs":12435,"Ġcimotpircsnart":12436,"Ġnitats":12437,"Ġdereb":12438,"Ġsesira":12439,"etso":12440,"ĠHR":12441,"Ġlarom":12442,"ĠnoitubirtsiD":12443,"Ġtnenamrep":12444,"nifed":12445,"ĠhguohT":12446,"uqinu":12447,"ĠEM":12448,"Ġetagergga":12449,"ĠteM":12450,"Ġyltneuqesnoc":12451,"Ġtiurcer":12452,"ĠICC":12453,"Ġelbatubirtta":12454,"Ġnoitaxaler":12455,"negel":12456,"âĪĴ[":12457,"ciP":12458,"Ġytiuca":12459,"-]":12460,"Ġerop":12461,"yltnerruC":12462,"egd":12463,"Ġsnoisivid":12464,"ohcyspitna":12465,"ĠSSD":12466,"Ġnoitavitcaer":12467,"Ġgnitcartbus":12468,"repahc":12469,"ycer":12470,"Ġroolf":12471,"celfed":12472,"luohs":12473,"ĠgnitroppuS":12474,"Ġlufpleh":12475,"Ġga":12476,"Ġsenecs":12477,"Ġprahs":12478,"setairavoc":12479,"NL":12480,"Ġ40":12481,"ĠgniniarT":12482,"stod":12483,"ĠsesnopseR":12484,"Ġenietsyc":12485,"poP":12486,"etnI":12487,"Ġnoitac":12488,"ivorp":12489,"ĠxiS":12490,"iA":12491,"hpsohP":12492,"lyc":12493,"Ġgnul":12494,"Ġgniliforp":12495,"orelcsorehta":12496,"stnemnorivne":12497,"Ġtfird":12498,"Ġmrofitpelipe":12499,"Ġ****":12500,"raK":12501,"Ġdrawni":12502,"ĠsNP":12503,"Ġtroh":12504,"iniM":12505,"nikuel":12506,"ĠRIALF":12507,"Ġsesserppus":12508,"Ġelbahsiugnitsid":12509,"srotibihni":12510,"Ġdetalugersyd":12511,"omrehT":12512,"ĠFH":12513,"seti":12514,"thginrevo":12515,"Ġknurt":12516,"ĠratsiW":12517,"rofi":12518,"Ġ38":12519,"Ġgnicaf":12520,"Ġderdnuh":12521,"ipa":12522,"Ġdetelped":12523,"erugif":12524,"Ġsul":12525,"Ġnoitacolla":12526,"TCR":12527,"esorcus":12528,"ingo":12529,"Ġesaremylop":12530,"Ġlufsserts":12531,"Ġgnisserppus":12532,"ytilibats":12533,"Ġyhpargolahpecneortcele":12534,"Ġsoediv":12535,"gniK":12536,"effac":12537,"Ġralucsavirep":12538,"yletanutrofnU":12539,"sloot":12540,"Ġ47":12541,"ĠscitsiretcarahC":12542,"Ġdevirped":12543,"Ġylevitatitnauq":12544,"Ġecnanimul":12545,"Ġsrodo":12546,"Ġdeppalrevo":12547,"FIH":12548,"Ġdetcerrocnu":12549,"wap":12550,"stroper":12551,"neve":12552,"carter":12553,"slanimret":12554,"idaro":12555,"Ġ78":12556,"Ġcitotim":12557,"Ġstsil":12558,"Ġerachtlaeh":12559,"Ġ48":12560,"dek":12561,"Ġdetirehni":12562,"aK":12563,"Ġgniraeppa":12564,"Ġtnemelpmi":12565,"selgna":12566,"ĠFGEV":12567,"Ġlamosotua":12568,"prep":12569,"rtcepS":12570,"Ġgniniatbo":12571,"tilps":12572,"ĠniaP":12573,"Hmm":12574,"Ġgnitanileymed":12575,"dengis":12576,"tnom":12577,"noitomocol":12578,"Ġnil":12579,"Ġkcatta":12580,"dnaR":12581,"410":12582,"Ġgnitaitnereffid":12583,"Ġecruoser":12584,"Ġyhpargopot":12585,"ĠroivaheB":12586,"AAC":12587,"Ġnoixelf":12588,"Ġgnisi":12589,"Ġevitcartta":12590,"sO":12591,"Ġtfi":12592,"ĠsniarB":12593,"Ġenipaz":12594,"Ġdetatonna":12595,"ĠLT":12596,"Ġcitamyzne":12597,"Ġsdionagro":12598,"tiwS":12599,"togyz":12600,"ĠcificepS":12601,"Ġsum":12602,"Ġeudiser":12603,"yE":12604,"Ġnik":12605,"noitanileym":12606,"Ġdemees":12607,"Ġralucsavoruen":12608,"laiceps":12609,"dnagil":12610,"Ġlaso":12611,"tsmucric":12612,"Ġrebme":12613,"ĠLO":12614,"HAS":12615,"Ġlautum":12616,"Ġevitcaretni":12617,"Ġdee":12618,"smrof":12619,"doog":12620,"lapmacoppih":12621,"Ġtslihw":12622,"Ġetairavoc":12623,"ĠytivitcennoC":12624,"Ġdioleym":12625,"saerceD":12626,"nek":12627,"Ġgnildnah":12628,"Ġdeli":12629,"Ġmuihtil":12630,"tiduA":12631,"Ġsenoc":12632,"tneidarg":12633,"Ġstneidarg":12634,"Ġrehc":12635,"egac":12636,"Ġtcefed":12637,"cigre":12638,"Ġsmrifnoc":12639,"ygolonhceT":12640,"Ġgnos":12641,"vruc":12642,"Ġgnimussa":12643,"stnecseloda":12644,"Ġrefni":12645,"Ġaisahpa":12646,"Ġytilibapac":12647,"ĠLfN":12648,"difnoc":12649,"yk":12650,"Ġlanogohtro":12651,"ANRim":12652,"Ġyats":12653,"lortnoC":12654,"mugra":12655,"Ġsebut":12656,"ĠlaropmeT":12657,"ĠÎ±FNT":12658,"Ġgnitcilfnoc":12659,"Ġtseter":12660,"Ġgnipoc":12661,"Ġcinilc":12662,"Ġsuoireteled":12663,"ulovnoc":12664,"tarobal":12665,"ĠgurD":12666,"noitapi":12667,"Ġgnitneiro":12668,"Ġsrotagitsevni":12669,"robra":12670,"Ġetalosi":12671,"Ġerian":12672,"ĠmahS":12673,"Ġbamu":12674,"ytixelpmoc":12675,"Ġelibom":12676,"Ġgnitartsulli":12677,"ĠeriannoitseuQ":12678,"puc":12679,"Ġgnivresbo":12680,"itrepxe":12681,"noitaticxe":12682,"Ġegaknil":12683,"Ġlewo":12684,"PSP":12685,"vired":12686,"negordyh":12687,"Ġnitiuqibu":12688,"Ġlaceht":12689,"Ġdetacid":12690,"Ġlanoitcnufsyd":12691,"Ġgnimoceb":12692,"yleman":12693,"<.":12694,"noitcnitxe":12695,"gonummi":12696,"reC":12697,"Ġklaw":12698,"Ġnoitatnemelppus":12699,"etoN":12700,"Ġgnippat":12701,"limaH":12702,"Ġcilcyc":12703,"RQI":12704,"Ġgnihsaw":12705,"llirbi":12706,"Ġkniht":12707,"tnemelppuS":12708,"puorG":12709,"salta":12710,"eslup":12711,"laeR":12712,"sucnoc":12713,"IPAD":12714,"Ġyllacisyhp":12715,"cisum":12716,"Ġslairetam":12717,"Ġgniylpmi":12718,"ĠoH":12719,"nahp":12720,"Ġgniwo":12721,"Ġcniz":12722,"oneG":12723,"Ġgniziretcarahc":12724,"Ġtnemegnarra":12725,"ytilibaborp":12726,"Ġseldnub":12727,"Ġnoitaripser":12728,"noitazit":12729,"imeh":12730,"ĠNRG":12731,"Ġronod":12732,"htapotsih":12733,"lhc":12734,"Ġeldeen":12735,"cihc":12736,"Ġtnemniartne":12737,"GOM":12738,"pyh":12739,"retS":12740,"irC":12741,"olped":12742,"Ġciborea":12743,"omut":12744,"sdio":12745,"Ġdetius":12746,"Ġtnereffe":12747,"EK":12748,"Ġsesiar":12749,"Ġesareficul":12750,"KPAM":12751,"fib":12752,"vaP":12753,"Ġytitnauq":12754,"103":12755,"ĠdradnatS":12756,"Ġcin":12757,"Ġdetcepsus":12758,"Ġsnoi":12759,"hctiws":12760,"Ġyltsubor":12761,"Ġ521":12762,"Ġecnednopserroc":12763,"Ġnoisnepsus":12764,"Ġevorp":12765,"seiromem":12766,"ĠDFH":12767,"ĠEPR":12768,"iverbbA":12769,"htel":12770,"ĠDF":12771,"nedrub":12772,"tr":12773,"Ġenirhp":12774,"Ġnots":12775,"Ġdesaibnu":12776,"tte":12777,"stinubus":12778,"sreirrac":12779,"noitareneger":12780,"Ġypocsortceps":12781,"ĠyrotnevnI":12782,"ĠesohT":12783,"Ġlaicosohcysp":12784,"Ġnoitcaf":12785,"ĠgnitirW":12786,"Ġdezinegomoh":12787,"nhoJ":12788,"ĠdecudeR":12789,"padA":12790,"ugirtni":12791,"Ġsegatnecrep":12792,"Ġdecudsnart":12793,"caroht":12794,"sresu":12795,"Ġcigahrromeh":12796,"cato":12797,"ĠBA":12798,"Ġysion":12799,"vaC":12800,"IW":12801,"Ġssorg":12802,"FBC":12803,"Ġdegralne":12804,"Ġdeviecnoc":12805,"ngilam":12806,"seira":12807,"noitavresbo":12808,"Ġyllacimanyd":12809,"041":12810,"eron":12811,"Ġ19":12812,"snoitaretla":12813,"ĠFC":12814,"niak":12815,"zam":12816,"zah":12817,"ĠGT":12818,"Ġsnoitrop":12819,"ĠnoitanimaxE":12820,"Ġredaer":12821,"Ġesiar":12822,"ĠdetaleR":12823,"noitarutam":12824,"troppus":12825,"ĠDV":12826,"yel":12827,"ĠSSHIN":12828,"droceR":12829,"amo":12830,"Ġsdnik":12831,"htped":12832,"Ġmed":12833,"ceser":12834,"Ġssessop":12835,"sneso":12836,"larts":12837,"Ġsepols":12838,"Ġytivitisnesrepyh":12839,"Ġsllac":12840,"Ġsdleiy":12841,"roT":12842,"lartuen":12843,"secart":12844,"meH":12845,"Ġsehctap":12846,"Ġsreiltuo":12847,"Ġyraropmet":12848,"cnudep":12849,"motameh":12850,"Ġcigrenerdaron":12851,"ĠSES":12852,"Ġsetycohpmyl":12853,"FGEV":12854,"Ġhtuoy":12855,"Ġevloser":12856,"ĠhtimS":12857,"Ġdlohserhtbus":12858,"nulb":12859,"110":12860,"Ġesadixo":12861,"Ġcirtemohcysp":12862,"Ġenikomehc":12863,"laP":12864,"kcohs":12865,"recnac":12866,"Ġgnitf":12867,"Ġytilartnec":12868,"bew":12869,"lacitroc":12870,"carap":12871,"BL":12872,"Ġgniw":12873,"Ġlerrab":12874,"Ġtnuom":12875,"eiV":12876,"sesaercni":12877,"Ġdeniag":12878,"Ġtnecse":12879,"musollac":12880,"Ġralugerri":12881,"Ġevlos":12882,"ĠLF":12883,"Ġybraen":12884,"Ġdedahs":12885,"Ġgniwols":12886,"leM":12887,"Ġxim":12888,"Ġtcelloc":12889,"ateM":12890,"Ġsubolg":12891,"PST":12892,"Ġnov":12893,"edac":12894,"ĠAPV":12895,"kcit":12896,"Ġyppah":12897,"Ġsesabatad":12898,"Ġgnitt":12899,"Ġdnuosartlu":12900,"Ġelbigile":12901,"dnoL":12902,"snoitacif":12903,"ecived":12904,"Ġtnegaer":12905,"ĠlarbereC":12906,"Ġdenolc":12907,"ERI":12908,"oibitna":12909,"onhcara":12910,"Ġlairotcaf":12911,"llipac":12912,"FGN":12913,"Ġnoitatsefinam":12914,"Ġytilanoitcnuf":12915,"Ġgninesrow":12916,"Ġgniward":12917,"hgir":12918,"evif":12919,"retomorp":12920,"Ġdele":12921,"lpxE":12922,"elhcoc":12923,"Ġstisiv":12924,"Ġlacihpargo":12925,"MF":12926,"ĠNGL":12927,"iknisleH":12928,"Ġgnili":12929,"Ġshpargorcim":12930,"ĠsT":12931,"cniv":12932,"Ġnoitse":12933,"snoisnemid":12934,"ĠselpmaxE":12935,"Ġlatciretni":12936,"tibrabo":12937,"VÎ¼":12938,"ĠLI":12939,"ĊĊĊĊĠĠĊ":12940,"Ġlae":12941,"Ġnoitarotser":12942,"Ġseitidibromoc":12943,"Ġdeniatsonummi":12944,"ĠFT":12945,"DGO":12946,"KNIP":12947,"Ġylppus":12948,"ecneicsoruen":12949,"Ġmaet":12950,"Ġerutcurtsorcim":12951,"uK":12952,"lucibus":12953,"Ġerehps":12954,"Ġsngised":12955,"ĠOCH":12956,"tnatsnoc":12957,"Ġlanigram":12958,"ĠsnoigeR":12959,"ĠtnempoleveD":12960,"Ġ)âĢĻ":12961,"VOCNA":12962,"sedaced":12963,"Ġsisotpor":12964,"Ġsnoitalupopbus":12965,"reveR":12966,"Ġsuxelp":12967,"Ġgnisoppo":12968,"->":12969,"ĠecnecseroulfonummI":12970,"Ġeditpeporuen":12971,"Ġdelbmarcs":12972,"Ġcitehtse":12973,"ĠIV":12974,"libaemrep":12975,"ĠreiruoF":12976,"Ġlargetni":12977,"Ġdetnemgua":12978,"ĠnoitisiuqcA":12979,"ĠsCSM":12980,"Ġllimdaert":12981,"eroc":12982,"kcolc":12983,"ĠlartneC":12984,"Ġstnemgduj":12985,"Ġdeveirter":12986,"lcycer":12987,"Ġytivitagen":12988,"siM":12989,"LL":12990,"Ġgnihsiugnitsid":12991,"irta":12992,"Ġdepleh":12993,"Ġdehcraes":12994,"Ġoiranecs":12995,"Ġytilibatireh":12996,"slessev":12997,"gnim":12998,"tnecce":12999,"nomma":13000,"seilf":13001,"ĠseneG":13002,"isneS":13003,"enk":13004,"Ġsemordnys":13005,"ĠnamraepS":13006,"Ġtnemhsinup":13007,"Ġlufraef":13008,"Ġelbulosni":13009,"Ġlarberecartni":13010,"avired":13011,"ecnatsiser":13012,"Ġsesucof":13013,"Ġeslupmi":13014,"nialpmoc":13015,"Ġnoitcudortni":13016,"gs":13017,"edil":13018,"ocra":13019,"ĠnettirW":13020,"Ġamoc":13021,"Ġdebircs":13022,"deliat":13023,"Ġladicius":13024,"llab":13025,"NCK":13026,"Ġdetavrenni":13027,"noisserppus":13028,"Ġsgnileef":13029,"stnemges":13030,"selcyc":13031,"NueN":13032,"riaf":13033,"Ġ89":13034,"snoitautis":13035,"Ġenina":13036,"Ġniets":13037,"Ġsegareva":13038,"niw":13039,"ĠgnissecorP":13040,"clS":13041,"ihtatulg":13042,"rosnes":13043,"Ġgn":13044,"sgnitar":13045,"ZS":13046,"noitaxif":13047,"ĠMBI":13048,"Ġcirtemoeg":13049,"setanidrooc":13050,"ĠsleveL":13051,"Ġevititeppa":13052,"irulp":13053,"ĠDBR":13054,"Ġsaniter":13055,"Ġ97":13056,"PCM":13057,"Ġtsirw":13058,"Ġetanigiro":13059,"CCP":13060,"lartsuA":13061,"elgniS":13062,"egnellahc":13063,"cilop":13064,"ameS":13065,"sdlohserht":13066,"Ġsmargotsih":13067,"Ġoni":13068,"idraco":13069,"Ġtnemetatsnier":13070,"Ġenolc":13071,"rutam":13072,"Ġcixopyh":13073,"Ġrotomoluco":13074,"Ġlacimanyd":13075,"roballoc":13076,"lv":13077,"ĠSTS":13078,"Ġylu":13079,"ĠMF":13080,"ACC":13081,"Ġtw":13082,"lucsum":13083,"ortet":13084,"ĠyassA":13085,"Ġgniraeb":13086,"Ġetaci":13087,"Ġetalumis":13088,"Ġgnivres":13089,"llo":13090,"Ġaig":13091,"noitcuder":13092,"Ġsnoxe":13093,"Ġemosaetorp":13094,"maG":13095,"Ġsrosrucerp":13096,"Ġrez":13097,"Ġani":13098,"ĠoS":13099,"Ġlyhtem":13100,"hportoruen":13101,"liv":13102,"ĠyrotiduA":13103,"ĠSRm":13104,"sser":13105,"noitpircsnart":13106,"Ġgninoitisop":13107,"Ġdetalyhtem":13108,"Ġnoisse":13109,"BERC":13110,"woL":13111,"Ġ28":13112,"ovorp":13113,"Ġnoitazirogetac":13114,"Ġdegnarra":13115,"Ġlacimehcoruen":13116,"ĠlacihtE":13117,"ĠED":13118,"Ġstcejorp":13119,"Ġcinegotpelipe":13120,"ĠPIV":13121,"Ġnimubla":13122,"Ġelirets":13123,"snoitcejni":13124,"stnemssessa":13125,"Ġlaretalloc":13126,"mitsE":13127,"Ġgnisuoh":13128,"ruoj":13129,"Ġmuirbiliuqe":13130,"emyzne":13131,"ĠthgiL":13132,"ĠssoL":13133,"Ġelbacilppa":13134,"lyx":13135,"oym":13136,"VOF":13137,"ĠdlroW":13138,"Ġsulucicsaf":13139,"Ġlanac":13140,"Ġeriw":13141,"suclus":13142,"ĠCCI":13143,"raew":13144,"ĠcifitneicS":13145,"Ġtnarepo":13146,"argga":13147,"Ġatamos":13148,"sero":13149,"Ġdetacided":13150,"ehcoR":13151,"Ġlasiarppa":13152,"Ġyletaredom":13153,"libissop":13154,"ĠVE":13155,"Ġevitcefed":13156,"Ġgnitciped":13157,"ucav":13158,"noitaicossa":13159,"Ġtamrof":13160,"eniperon":13161,"Ġihc":13162,"Ġecnati":13163,"sdnuos":13164,"Ġtnemurtsni":13165,"Ġ29":13166,"Ġdekcart":13167,"Ġerutalucsav":13168,"ĠLSF":13169,"TCN":13170,"Ġehpar":13171,"reni":13172,"ĠLPI":13173,"Ġnoitatipicerponummi":13174,"sessalc":13175,"Ġreirrac":13176,"voN":13177,"lamrof":13178,"semarf":13179,"Ġdetacnurt":13180,"etycortsa":13181,"ciaspac":13182,"marg":13183,"Ġxulf":13184,"ĠLR":13185,"Ġlaretalortnev":13186,"Ġstciped":13187,"uryp":13188,"Ġcitsilarutan":13189,"etaduac":13190,"degnahc":13191,"Ġyrallirbi":13192,"ssenluf":13193,"blub":13194,"lameF":13195,"Ġylevitatilauq":13196,"Ġ49":13197,"Ġevitarepoerp":13198,"ordorp":13199,"Ġgnileef":13200,"Ġnalp":13201,"ĠesaC":13202,"Ġderewol":13203,"elella":13204,"Ġyllacigoloisyhp":13205,"Ġ39":13206,"Ġ041":13207,"Ã³":13208,"ĠrehtegoT":13209,"Ġylesrevni":13210,"PTPM":13211,"tnatropmi":13212,"Ġgnitcudnoc":13213,"Ġkaerb":13214,"syhP":13215,"noitaleR":13216,"520":13217,"gninnacs":13218,"Ġecnadepmi":13219,"Ġloidartse":13220,"FRC":13221,"lohcetac":13222,"Ġspe":13223,"Ġnoitarutas":13224,"Ġwas":13225,"Ġnredom":13226,"ĠYPN":13227,"Ġmodeerf":13228,"Ġkcots":13229,"Ġdetarutas":13230,"Ġcipocsorcim":13231,"revocsid":13232,"reven":13233,"nedutS":13234,"snoisiced":13235,"Ġesirpmoc":13236,"detaulave":13237,"ceM":13238,"ydarb":13239,"Ġnoihsaf":13240,"aino":13241,"lamona":13242,"Ġytienegomoh":13243,"nimatnoc":13244,"ĠCB":13245,"ualg":13246,"ĠsetycortsA":13247,"atled":13248,"ĠTSA":13249,"Ġsrentrap":13250,"ĠemaS":13251,"dnuopmoc":13252,"ATDE":13253,"Ġtsis":13254,"Ġana":13255,"otim":13256,"tibihnI":13257,"iverP":13258,"ĠFNT":13259,"ĠGAC":13260,"Ġdecnalabretnuoc":13261,"atnegam":13262,"arised":13263,"tseb":13264,"Ġseihtapo":13265,"Ġtsgno":13266,"tnasaelp":13267,"Ġnainosnikrap":13268,"Ġxul":13269,"nniprednu":13270,"catsbo":13271,"Ġgolatac":13272,"OSMD":13273,"Ġlarecsiv":13274,"GDF":13275,"siH":13276,"Ġygolopot":13277,"Ġnoitavitcaed":13278,"Ġelitnecrep":13279,"Ġtreb":13280,"sdaehworra":13281,"Ġedargoretna":13282,"Ġdesufni":13283,"ecrof":13284,"erB":13285,"Ġytivitisop":13286,"Ġaili":13287,"zzid":13288,"ozneb":13289,"citpelipe":13290,"tkA":13291,"Ġdetnem":13292,"traeh":13293,"DCI":13294,"ĠnoitaulavE":13295,"ble":13296,"lumiS":13297,"ĠGP":13298,"laf":13299,"Ġdelu":13300,"ĠsgnidroceR":13301,"ĠyekuT":13302,"&;":13303,"enp":13304,"gnitirw":13305,"ĠnepO":13306,"tnalp":13307,"Ġtnemhsilbatse":13308,"MPRT":13309,"rcim":13310,"gnimit":13311,"yrtiucric":13312,"tnemerusaem":13313,"gniklaw":13314,"Ġsreifissalc":13315,"tef":13316,"mrah":13317,"Ġdetide":13318,"noitalsnart":13319,"snoitalumis":13320,"Ġstrepxe":13321,"noitatupmoc":13322,"Ġgnilledom":13323,"ĠAV":13324,"elcuN":13325,"ĊĠĠĠĠĠĠĊ":13326,"Ġlacitrocartni":13327,"Ġgnithgiew":13328,"Ġnoitagufirtnec":13329,"xen":13330,"ytirgetni":13331,"111":13332,"thgiarts":13333,"Ġetavrenni":13334,"secneirepxe":13335,"Ġsisonets":13336,"snur":13337,"ea":13338,"Ġgniterpretni":13339,"ĠEGAR":13340,"Ġdionhcara":13341,"Ġllif":13342,"gnot":13343,"Ġlio":13344,"Ġsesoprup":13345,"DTL":13346,"sebol":13347,"ĠASO":13348,"Ġgnisserdda":13349,"ecils":13350,"ĠsVS":13351,"Ġdetcapmi":13352,"Ġyllacinorhc":13353,"Ġstisoped":13354,"ruM":13355,"ĠSW":13356,"ĠoslA":13357,"Ġymotce":13358,"DAERD":13359,"ĠpoT":13360,"Ġgnikniht":13361,"Ġlanosrepretni":13362,"Ġsezirammus":13363,"Ġgnitnuom":13364,"Ġgninrut":13365,"dyhed":13366,"Ġevitarefilorp":13367,"ĠCPH":13368,"Ġlanogaid":13369,"Ġklub":13370,"poruen":13371,"Ġyhtapolahpecne":13372,"Ġ77":13373,"Ġsnialpxe":13374,"thgirb":13375,"Ġecnailpmoc":13376,"FO":13377,"dis":13378,"ĠlairT":13379,"gitrev":13380,"ĠngiseD":13381,"Ġtnardauq":13382,"erohportcele":13383,"epS":13384,"ĠGB":13385,"Ġdeknar":13386,"Ġ98":13387,"ĠPFGe":13388,"ĠredrosiD":13389,"Ġderedro":13390,"esnes":13391,"5102":13392,"Ġsdraw":13393,"Ġcitamotpmysa":13394,"ĠamgiS":13395,"tamotpmys":13396,"ĠLTM":13397,"Ġsmrofrep":13398,"Ġdetsisrep":13399,"Ġyleuqinu":13400,"Ġeludehcs":13401,"Ġtsisrep":13402,"Ġsuomonotua":13403,"XOF":13404,"Ġcihportoyma":13405,"Ġrailimafnu":13406,"Ġseis":13407,"ngaM":13408,"remac":13409,"Ġeson":13410,"ĠrewoL":13411,"lihP":13412,"xiS":13413,"ĠPV":13414,"Ġylivaeh":13415,"Ġnoitp":13416,"xelP":13417,"Ġytisneporp":13418,"Ġdetangised":13419,"norhcnysed":13420,"tiL":13421,"ĠDBC":13422,"Ġsecnatsbus":13423,"Ġaiseglarepyh":13424,"gerT":13425,"negordyhed":13426,"Ġepoc":13427,"irip":13428,"Ġerutsop":13429,"noitavirped":13430,"deirF":13431,"greB":13432,"lomm":13433,"Ġdnuorrus":13434,"nrevog":13435,"opo":13436,"eugar":13437,"lanerda":13438,"sepytoneg":13439,"Ġyllat":13440,"ĠGoCE":13441,"ylsuoenatlumis":13442,"Ġcimedaca":13443,"spac":13444,"Ġevitcnitsid":13445,"Ġyraili":13446,"Ġseifitnedi":13447,"Ġnoitadixo":13448,"Ġelbaiv":13449,"Ġskco":13450,"Ġlanoitan":13451,"Ġetaivella":13452,"Ġsfitom":13453,"PLG":13454,"malfnI":13455,"010":13456,"syD":13457,"gatsy":13458,"Ġgniyfitnauq":13459,"lpmaser":13460,"ĠÃ©":13461,"Ġdereffus":13462,"bmilc":13463,"Ġssentif":13464,"erutcetihcra":13465,"TTH":13466,"elloC":13467,"Ġyletuca":13468,"ĠserusaeM":13469,"odnE":13470,"utsop":13471,"FTA":13472,"008":13473,"ĠsCI":13474,"ĠretsulC":13475,"reper":13476,"Ġdetnalpsnart":13477,"Ġyrtemohprom":13478,"ĠSB":13479,"ytidi":13480,"caL":13481,"ĠzurC":13482,"Ġecnetsisrep":13483,"Ġgnidils":13484,"Ġlacisyhpoib":13485,"ĠLA":13486,"unitnocsid":13487,"ĊĊĊĠ":13488,"ĠytilauQ":13489,"RAD":13490,"detcudnoc":13491,"Ġretnuoc":13492,"Ġsetalumits":13493,"ĠAFP":13494,"rrim":13495,"Ġyrallirbiforuen":13496,"Ġrotomousiv":13497,"Ġnoisremmi":13498,"itahpsohp":13499,"nahtue":13500,"PMAc":13501,"Ġye":13502,"Ġthgirpu":13503,"Ġsdipil":13504,"Ġyk":13505,"Ġelkna":13506,"Ġthgilf":13507,"Ġba":13508,"Ġlaretalosab":13509,"ata":13510,"Ġtats":13511,"Ġdesserp":13512,"ĠEGAP":13513,"bmG":13514,"Ġ*(":13515,"ĠBLD":13516,"tserra":13517,"dd":13518,"Ġdebrutsid":13519,"gahpotim":13520,"ĠerudecorP":13521,"ĠEC":13522,"Ġstnasserpeditna":13523,"time":13524,"Ġstf":13525,"siw":13526,"Ġbmiler":13527,"Ġdetrexe":13528,"Ġegasu":13529,"Ġtnalpmi":13530,"Ġgnisoohc":13531,"Ġdemmargorp":13532,"Ġ042":13533,"Ġrey":13534,"ĠVID":13535,"Ġyltnerappa":13536,"ihcysP":13537,"Ġspm":13538,"Ġknilb":13539,"Ġnoitanimret":13540,"rgetnI":13541,"CAP":13542,"Ġtnangerp":13543,"tnemevorpmi":13544,"Ġdecaps":13545,"gnicneuqes":13546,"Ġtnegrevid":13547,"ulcerp":13548,"nikuelretni":13549,"Ġnortisop":13550,"Ġnoitalid":13551,"ĠroloC":13552,"CLP":13553,"Ġdelevart":13554,"Ġlarus":13555,"Ġalludem":13556,"ĠPO":13557,"Ġnixero":13558,"MLG":13559,"Ġdettimsnart":13560,"doR":13561,"Ġtsisnoc":13562,"ehca":13563,"Ġcinitocin":13564,"nummoC":13565,"ĠlacoL":13566,"Ġcihpargopot":13567,"ĠhctoN":13568,"ĠSTL":13569,"Ġgniretne":13570,"Ġraluconib":13571,"ecnereferp":13572,"ĠPBM":13573,"ĠnoitceteD":13574,"pezaid":13575,"APMA":13576,"Ġsrovivrus":13577,"Ġseiretra":13578,"Ġ80":13579,"VF":13580,"Ġsrets":13581,"Ġsrosserts":13582,"cinhte":13583,"eerged":13584,"Ġicof":13585,"tO":13586,"revda":13587,"lawardhtiw":13588,"Ġyranom":13589,"nituor":13590,"Ġfeileb":13591,"Ġelacsbus":13592,"spihsnoitaler":13593,"Ġsnoitarepo":13594,"idracsnart":13595,"Ġcirets":13596,"Ġdemmus":13597,"Ġdetcennocretni":13598,"srebmun":13599,"dessucsid":13600,"Ġainydolla":13601,"cinep":13602,"hgua":13603,"ASI":13604,"ĠAm":13605,"liF":13606,"erutan":13607,"Ġevitareneger":13608,"Ġ031":13609,"loohcs":13610,"Ġmuilehtipe":13611,"reM":13612,"aisa":13613,"cafo":13614,"KF":13615,"romut":13616,"racsum":13617,"sylopop":13618,"taN":13619,"sisab":13620,"DRD":13621,"robale":13622,"Ġlab":13623,"ĠIIKMaC":13624,"ripsa":13625,"ĠCKP":13626,"Ġraluciter":13627,"Ġsdnah":13628,"yldnoceS":13629,"ix":13630,"Ġcitamenik":13631,"eugarpS":13632,"Ġsg":13633,"ruccA":13634,"CNU":13635,"ĠIWD":13636,"Ġesebo":13637,"srodo":13638,"ssorC":13639,"Ġdereffo":13640,"([":13641,"noitarts":13642,"DV":13643,"Ġlatinegnoc":13644,"noitadilosnoc":13645,"casylopop":13646,"Ġycnedneped":13647,"syL":13648,"gruS":13649,"latrom":13650,"aim":13651,"lh":13652,"Ġyendik":13653,"Ġdnapxe":13654,"Ġgnidnam":13655,"Ġgnitaroprocni":13656,"deton":13657,"Ġgniht":13658,"Ġecnaligiv":13659,"Ġskcatta":13660,"tnega":13661,"ĠlaitnetoP":13662,"ĠERA":13663,"YL":13664,"Ġsbuh":13665,"Ġseunitnoc":13666,"elpitlum":13667,"ecnecseroulf":13668,"Ġetateca":13669,"nagrO":13670,"Ġevitanimircsid":13671,"oen":13672,"Ġenip":13673,"laK":13674,"Ġcigoloisyhp":13675,"nyra":13676,"tacS":13677,"Ġediwdlrow":13678,"ĠoHeR":13679,"Ġrevonrut":13680,"Ġemac":13681,"Ġpartstoob":13682,"stolp":13683,"610":13684,"Ġetalumucca":13685,"ĠHP":13686,"PYC":13687,"Ġytilibatsni":13688,"sevren":13689,"aF":13690,"edart":13691,"ĠPP":13692,"Ġekatpuer":13693,"Ġ-/+":13694,"nimub":13695,"ara":13696,"dommoc":13697,"Ġlatanirep":13698,"Ġretca":13699,"rehdac":13700,"ĠHN":13701,"Ġlanitsetniortsag":13702,"Ġylerup":13703,"gÂµ":13704,"regna":13705,"ĠACM":13706,"sdnoces":13707,"Ġemityad":13708,"ĠADHO":13709,"Ġsetaunetta":13710,"Ġyrotapicitna":13711,"Ġreddalb":13712,"ĠsO":13713,"ĠmureS":13714,"ĠlanipS":13715,"Ġneddus":13716,"Ġlaitnereferp":13717,"gnirotinom":13718,"XOS":13719,"ssene":13720,"Ġsetalu":13721,"laidem":13722,"ĠRTU":13723,"Ġnoitalupopbus":13724,"ehtseana":13725,"secruoser":13726,"roireted":13727,"oidrac":13728,"ĠnoitacifitnedI":13729,"edyhedla":13730,"bannacodne":13731,"tnemom":13732,"etairporppa":13733,"remid":13734,"Ġeenk":13735,"Ġsnoitcnufsyd":13736,"Ġdeid":13737,"Ġraludom":13738,"evitcejbo":13739,"ousiv":13740,"Ġgninrom":13741,"Ġdehctiws":13742,"yrartnoc":13743,"Ġgnidiova":13744,"Ġevitavresnoc":13745,"Ġevisserppus":13746,"Ġdemu":13747,"Ġevitpadalam":13748,"Ġlailgortsa":13749,"IBTm":13750,"lluks":13751,"ĠCHI":13752,"CU":13753,"Ġciretne":13754,"Ġsnoitaulave":13755,"Ġetaroprocni":13756,"EopA":13757,"ĠlacigoloisyhportcelE":13758,"olvaP":13759,"ĠPL":13760,"Ġhpar":13761,"CGP":13762,"Ġsdloh":13763,"ĠAK":13764,"ĠTSN":13765,"Ġspool":13766,"reps":13767,"Ġlanoisseforp":13768,"cirtne":13769,"tirri":13770,"Ġytilaer":13771,"Ġenisyl":13772,"yretra":13773,"ĠGTS":13774,"Ġdetalutsop":13775,"tnecreP":13776,"Ġgnillaf":13777,"Ġytiraenil":13778,"Ġnoitisopmoced":13779,"Ġsisylaid":13780,"Ġsnoitalumits":13781,"esrever":13782,"Ġpmup":13783,"Ġesimorp":13784,"repmi":13785,"Ġtt":13786,"ibit":13787,"xoV":13788,"Ġnegordyh":13789,"ĠyspelipE":13790,"Ġreviled":13791,"ĠyarG":13792,"paM":13793,"ĠCAP":13794,"ĠtnemevoM":13795,"TCG":13796,"stnemele":13797,"REP":13798,"ĠlCaN":13799,"ĠDN":13800,"ĠnoitartsinimdA":13801,"gnirpsffo":13802,"secneicsoiB":13803,"Ġelbicudorper":13804,"jie":13805,"RPSIRC":13806,"Ġezilitu":13807,"Ġcimsalpodne":13808,"Ġseitinutroppo":13809,"Ġstrats":13810,"Ġgnidnuf":13811,"Ġsuoro":13812,"dommocca":13813,"noitalosi":13814,"Ġnibolgomeh":13815,"Ġid":13816,"Ġdevlove":13817,"ĠCPO":13818,"tsug":13819,"ĠGNI":13820,"Ġbmilerof":13821,"VR":13822,"Ġnoitaludomoruen":13823,"Ġyrenihcam":13824,"ĠKNJ":13825,"uqesbuS":13826,"elur":13827,"itsu":13828,"Ġdora":13829,"Ġlartnectsop":13830,"Ġgniveihca":13831,"snoitubirtsid":13832,"Ġairetcab":13833,"HR":13834,"elartnoc":13835,"nebah":13836,"iriled":13837,"otyconummi":13838,"Ġnoitavreserp":13839,"noihsaf":13840,"etalugnic":13841,"rusne":13842,"Ġylpeed":13843,"ĠHIN":13844,"Ġnile":13845,"ĠydoB":13846,"tseN":13847,"ĠASB":13848,"Ġeivom":13849,"murtceps":13850,"Ġdessecorperp":13851,"zt":13852,"cixot":13853,"ataD":13854,"otamos":13855,"Ġsnoitazi":13856,"evac":13857,"nifer":13858,"Ġtciped":13859,"ĠAeC":13860,"teT":13861,"ĠACoM":13862,"EWF":13863,"rog":13864,"leW":13865,"Ġarb":13866,"ĠnohtyP":13867,"gnola":13868,"noitatilibaher":13869,"tnairav":13870,"Ġsecafrus":13871,"Sp":13872,"ortsor":13873,"ymortcele":13874,"neM":13875,"monom":13876,"FD":13877,"rened":13878,"dab":13879,"weks":13880,"Ġnoos":13881,"otcennoc":13882,"utitta":13883,"ligA":13884,"Ġsetutitsnoc":13885,"Ġnoitacificeps":13886,"otpO":13887,"Ġgnoleb":13888,"AFP":13889,"laT":13890,"TIF":13891,"ddiM":13892,"noitanimircsid":13893,"sisohcysp":13894,"Ġstellep":13895,"TSA":13896,"SMTr":13897,"loretselohc":13898,"Ġipmacoppih":13899,"grac":13900,"Ġgnittim":13901,"Ġreviecer":13902,"snaici":13903,"tsalboruen":13904,"Ġnoisserpmoc":13905,"AK":13906,"Ġyxorp":13907,"Ġylbakramer":13908,"Ġdedarged":13909,"AGG":13910,"Ġnoitpecnoc":13911,"ĠwolF":13912,"yreviled":13913,"yrtem":13914,"noitadarged":13915,"Ġlacirehps":13916,"rongi":13917,"negor":13918,"Ġesadixorep":13919,"Ġseilrednu":13920,"snoitcejorp":13921,"Ġsuoitcefni":13922,"tnednepedni":13923,"ke":13924,"Ġnoitcessid":13925,"Ġyllautriv":13926,"etra":13927,"lobme":13928,"Ġrehtom":13929,"Ġsto":13930,
[...]
